{
  "version": "1.0",
  "truncation": null,
  "padding": null,
  "added_tokens": [
    {
      "id": 0,
      "content": "[UNK]",
      "single_word": false,
      "lstrip": false,
      "rstrip": false,
      "normalized": false,
      "special": true
    },
    {
      "id": 1,
      "content": "[PAD]",
      "single_word": false,
      "lstrip": false,
      "rstrip": false,
      "normalized": false,
      "special": true
    },
    {
      "id": 2,
      "content": "[CLS]",
      "single_word": false,
      "lstrip": false,
      "rstrip": false,
      "normalized": false,
      "special": true
    },
    {
      "id": 3,
      "content": "[SEP]",
      "single_word": false,
      "lstrip": false,
      "rstrip": false,
      "normalized": false,
      "special": true
    },
    {
      "id": 4,
      "content": "[MASK]",
      "single_word": false,
      "lstrip": false,
      "rstrip": false,
      "normalized": false,
      "special": true
    },
    {
      "id": 5,
      "content": "1 -> 1",
      "single_word": false,
      "lstrip": false,
      "rstrip": false,
      "normalized": false,
      "special": true
    },
    {
      "id": 6,
      "content": "1 -> 2",
      "single_word": false,
      "lstrip": false,
      "rstrip": false,
      "normalized": false,
      "special": true
    },
    {
      "id": 7,
      "content": "1 -> 3",
      "single_word": false,
      "lstrip": false,
      "rstrip": false,
      "normalized": false,
      "special": true
    },
    {
      "id": 8,
      "content": "1 -> 4",
      "single_word": false,
      "lstrip": false,
      "rstrip": false,
      "normalized": false,
      "special": true
    },
    {
      "id": 9,
      "content": "1 -> home",
      "single_word": false,
      "lstrip": false,
      "rstrip": false,
      "normalized": false,
      "special": true
    },
    {
      "id": 10,
      "content": "2 -> 2",
      "single_word": false,
      "lstrip": false,
      "rstrip": false,
      "normalized": false,
      "special": true
    },
    {
      "id": 11,
      "content": "2 -> 3",
      "single_word": false,
      "lstrip": false,
      "rstrip": false,
      "normalized": false,
      "special": true
    },
    {
      "id": 12,
      "content": "2 -> 4",
      "single_word": false,
      "lstrip": false,
      "rstrip": false,
      "normalized": false,
      "special": true
    },
    {
      "id": 13,
      "content": "2 -> home",
      "single_word": false,
      "lstrip": false,
      "rstrip": false,
      "normalized": false,
      "special": true
    },
    {
      "id": 14,
      "content": "3 -> 4",
      "single_word": false,
      "lstrip": false,
      "rstrip": false,
      "normalized": false,
      "special": true
    },
    {
      "id": 15,
      "content": "3 -> home",
      "single_word": false,
      "lstrip": false,
      "rstrip": false,
      "normalized": false,
      "special": true
    },
    {
      "id": 16,
      "content": "Balk",
      "single_word": false,
      "lstrip": false,
      "rstrip": false,
      "normalized": false,
      "special": true
    },
    {
      "id": 17,
      "content": "Bunt Groundout",
      "single_word": false,
      "lstrip": false,
      "rstrip": false,
      "normalized": false,
      "special": true
    },
    {
      "id": 18,
      "content": "Bunt Lineout",
      "single_word": false,
      "lstrip": false,
      "rstrip": false,
      "normalized": false,
      "special": true
    },
    {
      "id": 19,
      "content": "Bunt Pop Out",
      "single_word": false,
      "lstrip": false,
      "rstrip": false,
      "normalized": false,
      "special": true
    },
    {
      "id": 20,
      "content": "Catcher Interference",
      "single_word": false,
      "lstrip": false,
      "rstrip": false,
      "normalized": false,
      "special": true
    },
    {
      "id": 21,
      "content": "Caught Stealing",
      "single_word": false,
      "lstrip": false,
      "rstrip": false,
      "normalized": false,
      "special": true
    },
    {
      "id": 22,
      "content": "Double",
      "single_word": false,
      "lstrip": false,
      "rstrip": false,
      "normalized": false,
      "special": true
    },
    {
      "id": 23,
      "content": "Double Play",
      "single_word": false,
      "lstrip": false,
      "rstrip": false,
      "normalized": false,
      "special": true
    },
    {
      "id": 24,
      "content": "Field Error",
      "single_word": false,
      "lstrip": false,
      "rstrip": false,
      "normalized": false,
      "special": true
    },
    {
      "id": 25,
      "content": "Fielders Choice",
      "single_word": false,
      "lstrip": false,
      "rstrip": false,
      "normalized": false,
      "special": true
    },
    {
      "id": 26,
      "content": "Fielders Choice Out",
      "single_word": false,
      "lstrip": false,
      "rstrip": false,
      "normalized": false,
      "special": true
    },
    {
      "id": 27,
      "content": "Flyout",
      "single_word": false,
      "lstrip": false,
      "rstrip": false,
      "normalized": false,
      "special": true
    },
    {
      "id": 28,
      "content": "Forceout",
      "single_word": false,
      "lstrip": false,
      "rstrip": false,
      "normalized": false,
      "special": true
    },
    {
      "id": 29,
      "content": "Grounded Into Double Play",
      "single_word": false,
      "lstrip": false,
      "rstrip": false,
      "normalized": false,
      "special": true
    },
    {
      "id": 30,
      "content": "Groundout",
      "single_word": false,
      "lstrip": false,
      "rstrip": false,
      "normalized": false,
      "special": true
    },
    {
      "id": 31,
      "content": "Hit By Pitch",
      "single_word": false,
      "lstrip": false,
      "rstrip": false,
      "normalized": false,
      "special": true
    },
    {
      "id": 32,
      "content": "Home Run",
      "single_word": false,
      "lstrip": false,
      "rstrip": false,
      "normalized": false,
      "special": true
    },
    {
      "id": 33,
      "content": "Intent Walk",
      "single_word": false,
      "lstrip": false,
      "rstrip": false,
      "normalized": false,
      "special": true
    },
    {
      "id": 34,
      "content": "Lineout",
      "single_word": false,
      "lstrip": false,
      "rstrip": false,
      "normalized": false,
      "special": true
    },
    {
      "id": 35,
      "content": "Pickoff",
      "single_word": false,
      "lstrip": false,
      "rstrip": false,
      "normalized": false,
      "special": true
    },
    {
      "id": 36,
      "content": "Pickoff Caught Stealing",
      "single_word": false,
      "lstrip": false,
      "rstrip": false,
      "normalized": false,
      "special": true
    },
    {
      "id": 37,
      "content": "Pickoff Error",
      "single_word": false,
      "lstrip": false,
      "rstrip": false,
      "normalized": false,
      "special": true
    },
    {
      "id": 38,
      "content": "Pop Out",
      "single_word": false,
      "lstrip": false,
      "rstrip": false,
      "normalized": false,
      "special": true
    },
    {
      "id": 39,
      "content": "Runner Double Play",
      "single_word": false,
      "lstrip": false,
      "rstrip": false,
      "normalized": false,
      "special": true
    },
    {
      "id": 40,
      "content": "Runner Out",
      "single_word": false,
      "lstrip": false,
      "rstrip": false,
      "normalized": false,
      "special": true
    },
    {
      "id": 41,
      "content": "Sac Bunt",
      "single_word": false,
      "lstrip": false,
      "rstrip": false,
      "normalized": false,
      "special": true
    },
    {
      "id": 42,
      "content": "Sac Fly",
      "single_word": false,
      "lstrip": false,
      "rstrip": false,
      "normalized": false,
      "special": true
    },
    {
      "id": 43,
      "content": "Sac Fly Double Play",
      "single_word": false,
      "lstrip": false,
      "rstrip": false,
      "normalized": false,
      "special": true
    },
    {
      "id": 44,
      "content": "Single",
      "single_word": false,
      "lstrip": false,
      "rstrip": false,
      "normalized": false,
      "special": true
    },
    {
      "id": 45,
      "content": "Stolen Base",
      "single_word": false,
      "lstrip": false,
      "rstrip": false,
      "normalized": false,
      "special": true
    },
    {
      "id": 46,
      "content": "Strikeout",
      "single_word": false,
      "lstrip": false,
      "rstrip": false,
      "normalized": false,
      "special": true
    },
    {
      "id": 47,
      "content": "Strikeout Double Play",
      "single_word": false,
      "lstrip": false,
      "rstrip": false,
      "normalized": false,
      "special": true
    },
    {
      "id": 48,
      "content": "Triple",
      "single_word": false,
      "lstrip": false,
      "rstrip": false,
      "normalized": false,
      "special": true
    },
    {
      "id": 49,
      "content": "Triple Play",
      "single_word": false,
      "lstrip": false,
      "rstrip": false,
      "normalized": false,
      "special": true
    },
    {
      "id": 50,
      "content": "Walk",
      "single_word": false,
      "lstrip": false,
      "rstrip": false,
      "normalized": false,
      "special": true
    },
    {
      "id": 51,
      "content": "Wild Pitch",
      "single_word": false,
      "lstrip": false,
      "rstrip": false,
      "normalized": false,
      "special": true
    },
    {
      "id": 52,
      "content": "[CATCHER]",
      "single_word": false,
      "lstrip": false,
      "rstrip": false,
      "normalized": false,
      "special": true
    },
    {
      "id": 53,
      "content": "[CENTER_FIELD]",
      "single_word": false,
      "lstrip": false,
      "rstrip": false,
      "normalized": false,
      "special": true
    },
    {
      "id": 54,
      "content": "[DATE]",
      "single_word": false,
      "lstrip": false,
      "rstrip": false,
      "normalized": false,
      "special": true
    },
    {
      "id": 55,
      "content": "[DESIGNATED_HITTER]",
      "single_word": false,
      "lstrip": false,
      "rstrip": false,
      "normalized": false,
      "special": true
    },
    {
      "id": 56,
      "content": "[FIELDERS]",
      "single_word": false,
      "lstrip": false,
      "rstrip": false,
      "normalized": false,
      "special": true
    },
    {
      "id": 57,
      "content": "[FIRST_BASE]",
      "single_word": false,
      "lstrip": false,
      "rstrip": false,
      "normalized": false,
      "special": true
    },
    {
      "id": 58,
      "content": "[GAME]",
      "single_word": false,
      "lstrip": false,
      "rstrip": false,
      "normalized": false,
      "special": true
    },
    {
      "id": 59,
      "content": "[GAME_END]",
      "single_word": false,
      "lstrip": false,
      "rstrip": false,
      "normalized": false,
      "special": true
    },
    {
      "id": 60,
      "content": "[GAME_START]",
      "single_word": false,
      "lstrip": false,
      "rstrip": false,
      "normalized": false,
      "special": true
    },
    {
      "id": 61,
      "content": "[INFIELD]",
      "single_word": false,
      "lstrip": false,
      "rstrip": false,
      "normalized": false,
      "special": true
    },
    {
      "id": 62,
      "content": "[LEFT_FIELD]",
      "single_word": false,
      "lstrip": false,
      "rstrip": false,
      "normalized": false,
      "special": true
    },
    {
      "id": 63,
      "content": "[MOVEMENTS]",
      "single_word": false,
      "lstrip": false,
      "rstrip": false,
      "normalized": false,
      "special": true
    },
    {
      "id": 64,
      "content": "[OUTFIELD]",
      "single_word": false,
      "lstrip": false,
      "rstrip": false,
      "normalized": false,
      "special": true
    },
    {
      "id": 65,
      "content": "[PINCH_HITTER]",
      "single_word": false,
      "lstrip": false,
      "rstrip": false,
      "normalized": false,
      "special": true
    },
    {
      "id": 66,
      "content": "[PINCH_RUNNER]",
      "single_word": false,
      "lstrip": false,
      "rstrip": false,
      "normalized": false,
      "special": true
    },
    {
      "id": 67,
      "content": "[PITCHER]",
      "single_word": false,
      "lstrip": false,
      "rstrip": false,
      "normalized": false,
      "special": true
    },
    {
      "id": 68,
      "content": "[PLAY]",
      "single_word": false,
      "lstrip": false,
      "rstrip": false,
      "normalized": false,
      "special": true
    },
    {
      "id": 69,
      "content": "[RIGHT_FIELD]",
      "single_word": false,
      "lstrip": false,
      "rstrip": false,
      "normalized": false,
      "special": true
    },
    {
      "id": 70,
      "content": "[RUNNER]",
      "single_word": false,
      "lstrip": false,
      "rstrip": false,
      "normalized": false,
      "special": true
    },
    {
      "id": 71,
      "content": "[SCORING_RUNNER]",
      "single_word": false,
      "lstrip": false,
      "rstrip": false,
      "normalized": false,
      "special": true
    },
    {
      "id": 72,
      "content": "[SECOND_BASE]",
      "single_word": false,
      "lstrip": false,
      "rstrip": false,
      "normalized": false,
      "special": true
    },
    {
      "id": 73,
      "content": "[SHORTSTOP]",
      "single_word": false,
      "lstrip": false,
      "rstrip": false,
      "normalized": false,
      "special": true
    },
    {
      "id": 74,
      "content": "[TEAM]",
      "single_word": false,
      "lstrip": false,
      "rstrip": false,
      "normalized": false,
      "special": true
    },
    {
      "id": 75,
      "content": "[THIRD_BASE]",
      "single_word": false,
      "lstrip": false,
      "rstrip": false,
      "normalized": false,
      "special": true
    },
    {
      "id": 76,
      "content": "[TWO_WAY_PLAYER]",
      "single_word": false,
      "lstrip": false,
      "rstrip": false,
      "normalized": false,
      "special": true
    },
    {
      "id": 77,
      "content": "[UTILITY]",
      "single_word": false,
      "lstrip": false,
      "rstrip": false,
      "normalized": false,
      "special": true
    },
    {
      "id": 78,
      "content": "[VENUE]",
      "single_word": false,
      "lstrip": false,
      "rstrip": false,
      "normalized": false,
      "special": true
    },
    {
      "id": 79,
      "content": "[WEATHER]",
      "single_word": false,
      "lstrip": false,
      "rstrip": false,
      "normalized": false,
      "special": true
    },
    {
      "id": 80,
      "content": "[out]",
      "single_word": false,
      "lstrip": false,
      "rstrip": false,
      "normalized": false,
      "special": true
    },
    {
      "id": 81,
      "content": "home -> 1",
      "single_word": false,
      "lstrip": false,
      "rstrip": false,
      "normalized": false,
      "special": true
    },
    {
      "id": 82,
      "content": "home -> 2",
      "single_word": false,
      "lstrip": false,
      "rstrip": false,
      "normalized": false,
      "special": true
    },
    {
      "id": 83,
      "content": "home -> 3",
      "single_word": false,
      "lstrip": false,
      "rstrip": false,
      "normalized": false,
      "special": true
    },
    {
      "id": 84,
      "content": "home -> 4",
      "single_word": false,
      "lstrip": false,
      "rstrip": false,
      "normalized": false,
      "special": true
    },
    {
      "id": 85,
      "content": "home -> home",
      "single_word": false,
      "lstrip": false,
      "rstrip": false,
      "normalized": false,
      "special": true
    }
  ],
  "normalizer": {
    "type": "Sequence",
    "normalizers": [
      {
        "type": "NFKC"
      }
    ]
  },
  "pre_tokenizer": {
    "type": "Sequence",
    "pretokenizers": [
      {
        "type": "Punctuation",
        "behavior": "Isolated"
      },
      {
        "type": "Whitespace"
      }
    ]
  },
  "post_processor": {
    "type": "TemplateProcessing",
    "single": [
      {
        "SpecialToken": {
          "id": "[CLS]",
          "type_id": 0
        }
      },
      {
        "Sequence": {
          "id": "A",
          "type_id": 0
        }
      },
      {
        "SpecialToken": {
          "id": "[SEP]",
          "type_id": 0
        }
      }
    ],
    "pair": [
      {
        "SpecialToken": {
          "id": "[CLS]",
          "type_id": 0
        }
      },
      {
        "Sequence": {
          "id": "A",
          "type_id": 0
        }
      },
      {
        "SpecialToken": {
          "id": "[SEP]",
          "type_id": 0
        }
      },
      {
        "Sequence": {
          "id": "B",
          "type_id": 1
        }
      },
      {
        "SpecialToken": {
          "id": "[SEP]",
          "type_id": 1
        }
      }
    ],
    "special_tokens": {
      "[CLS]": {
        "id": "[CLS]",
        "ids": [
          2
        ],
        "tokens": [
          "[CLS]"
        ]
      },
      "[SEP]": {
        "id": "[SEP]",
        "ids": [
          3
        ],
        "tokens": [
          "[SEP]"
        ]
      }
    }
  },
  "decoder": {
    "type": "WordPiece",
    "prefix": "##",
    "cleanup": true
  },
  "model": {
    "type": "WordPiece",
    "unk_token": "[UNK]",
    "continuing_subword_prefix": "##",
    "max_input_chars_per_word": 100,
    "vocab": {
      "[UNK]": 0,
      "[PAD]": 1,
      "[CLS]": 2,
      "[SEP]": 3,
      "[MASK]": 4,
      "1 -> 1": 5,
      "1 -> 2": 6,
      "1 -> 3": 7,
      "1 -> 4": 8,
      "1 -> home": 9,
      "2 -> 2": 10,
      "2 -> 3": 11,
      "2 -> 4": 12,
      "2 -> home": 13,
      "3 -> 4": 14,
      "3 -> home": 15,
      "Balk": 16,
      "Bunt Groundout": 17,
      "Bunt Lineout": 18,
      "Bunt Pop Out": 19,
      "Catcher Interference": 20,
      "Caught Stealing": 21,
      "Double": 22,
      "Double Play": 23,
      "Field Error": 24,
      "Fielders Choice": 25,
      "Fielders Choice Out": 26,
      "Flyout": 27,
      "Forceout": 28,
      "Grounded Into Double Play": 29,
      "Groundout": 30,
      "Hit By Pitch": 31,
      "Home Run": 32,
      "Intent Walk": 33,
      "Lineout": 34,
      "Pickoff": 35,
      "Pickoff Caught Stealing": 36,
      "Pickoff Error": 37,
      "Pop Out": 38,
      "Runner Double Play": 39,
      "Runner Out": 40,
      "Sac Bunt": 41,
      "Sac Fly": 42,
      "Sac Fly Double Play": 43,
      "Single": 44,
      "Stolen Base": 45,
      "Strikeout": 46,
      "Strikeout Double Play": 47,
      "Triple": 48,
      "Triple Play": 49,
      "Walk": 50,
      "Wild Pitch": 51,
      "[CATCHER]": 52,
      "[CENTER_FIELD]": 53,
      "[DATE]": 54,
      "[DESIGNATED_HITTER]": 55,
      "[FIELDERS]": 56,
      "[FIRST_BASE]": 57,
      "[GAME]": 58,
      "[GAME_END]": 59,
      "[GAME_START]": 60,
      "[INFIELD]": 61,
      "[LEFT_FIELD]": 62,
      "[MOVEMENTS]": 63,
      "[OUTFIELD]": 64,
      "[PINCH_HITTER]": 65,
      "[PINCH_RUNNER]": 66,
      "[PITCHER]": 67,
      "[PLAY]": 68,
      "[RIGHT_FIELD]": 69,
      "[RUNNER]": 70,
      "[SCORING_RUNNER]": 71,
      "[SECOND_BASE]": 72,
      "[SHORTSTOP]": 73,
      "[TEAM]": 74,
      "[THIRD_BASE]": 75,
      "[TWO_WAY_PLAYER]": 76,
      "[UTILITY]": 77,
      "[VENUE]": 78,
      "[WEATHER]": 79,
      "[out]": 80,
      "home -> 1": 81,
      "home -> 2": 82,
      "home -> 3": 83,
      "home -> 4": 84,
      "home -> home": 85,
      "'": 86,
      ",": 87,
      "-": 88,
      ".": 89,
      "0": 90,
      "1": 91,
      "2": 92,
      "3": 93,
      "4": 94,
      "5": 95,
      "6": 96,
      "7": 97,
      "8": 98,
      "9": 99,
      ">": 100,
      "A": 101,
      "B": 102,
      "C": 103,
      "D": 104,
      "E": 105,
      "F": 106,
      "G": 107,
      "H": 108,
      "I": 109,
      "J": 110,
      "K": 111,
      "L": 112,
      "M": 113,
      "N": 114,
      "O": 115,
      "P": 116,
      "Q": 117,
      "R": 118,
      "S": 119,
      "T": 120,
      "U": 121,
      "V": 122,
      "W": 123,
      "X": 124,
      "Y": 125,
      "Z": 126,
      "[": 127,
      "]": 128,
      "_": 129,
      "a": 130,
      "b": 131,
      "c": 132,
      "d": 133,
      "e": 134,
      "f": 135,
      "g": 136,
      "h": 137,
      "i": 138,
      "j": 139,
      "k": 140,
      "l": 141,
      "m": 142,
      "n": 143,
      "o": 144,
      "p": 145,
      "q": 146,
      "r": 147,
      "s": 148,
      "t": 149,
      "u": 150,
      "v": 151,
      "w": 152,
      "x": 153,
      "y": 154,
      "z": 155,
      "Ó": 156,
      "á": 157,
      "é": 158,
      "í": 159,
      "ñ": 160,
      "ó": 161,
      "ú": 162,
      "##e": 163,
      "##b": 164,
      "##l": 165,
      "##a": 166,
      "##n": 167,
      "##c": 168,
      "##1": 169,
      "##6": 170,
      "##7": 171,
      "##8": 172,
      "##2": 173,
      "##o": 174,
      "##r": 175,
      "##u": 176,
      "##t": 177,
      "##f": 178,
      "##y": 179,
      "##3": 180,
      "##s": 181,
      "##d": 182,
      "##i": 183,
      "##5": 184,
      "##0": 185,
      "##9": 186,
      "##h": 187,
      "##ñ": 188,
      "##4": 189,
      "##g": 190,
      "##k": 191,
      "##m": 192,
      "##é": 193,
      "##á": 194,
      "##z": 195,
      "##q": 196,
      "##x": 197,
      "##v": 198,
      "##j": 199,
      "##M": 200,
      "##w": 201,
      "##p": 202,
      "##C": 203,
      "##J": 204,
      "##ó": 205,
      "##G": 206,
      "##I": 207,
      "##K": 208,
      "##í": 209,
      "##N": 210,
      "##D": 211,
      "##ú": 212,
      "##A": 213,
      "##L": 214,
      "##Y": 215,
      "##E": 216,
      "##T": 217,
      "##R": 218,
      "##U": 219,
      "##F": 220,
      "##V": 221,
      "##P": 222,
      "##H": 223,
      "##O": 224,
      "##S": 225,
      "##W": 226,
      "##ER": 227,
      "##me": 228,
      "##ome": 229,
      "home": 230,
      "##HER": 231,
      "##CHER": 232,
      "##TCHER": 233,
      "PI": 234,
      "PITCHER": 235,
      "##ut": 236,
      "##an": 237,
      "##er": 238,
      "BA": 239,
      "##TER": 240,
      "##EN": 241,
      "##TS": 242,
      "##TTER": 243,
      "##AY": 244,
      "PL": 245,
      "PLAY": 246,
      "MO": 247,
      "##MEN": 248,
      "##EMEN": 249,
      "##VEMEN": 250,
      "MOVEMEN": 251,
      "MOVEMENTS": 252,
      "BATTER": 253,
      "##on": 254,
      "##ar": 255,
      "##in": 256,
      "##le": 257,
      "out": 258,
      "##ri": 259,
      "FI": 260,
      "##LD": 261,
      "##ELD": 262,
      "##out": 263,
      "FIELD": 264,
      "##el": 265,
      "##re": 266,
      "##ERS": 267,
      "FIELDERS": 268,
      "##or": 269,
      "##nd": 270,
      "##ke": 271,
      "St": 272,
      "##al": 273,
      "##as": 274,
      "##ou": 275,
      "##ch": 276,
      "##os": 277,
      "##en": 278,
      "##ck": 279,
      "##son": 280,
      "##at": 281,
      "##il": 282,
      "Stri": 283,
      "##is": 284,
      "##ez": 285,
      "Gr": 286,
      "##st": 287,
      "##keout": 288,
      "##ing": 289,
      "##and": 290,
      "##ol": 291,
      "Br": 292,
      "##am": 293,
      "##ound": 294,
      "Ground": 295,
      "Mi": 296,
      "##ly": 297,
      "Jos": 298,
      "Ja": 299,
      "##ay": 300,
      "Ch": 301,
      "##ad": 302,
      "##es": 303,
      "##SE": 304,
      "BASE": 305,
      "##ill": 306,
      "Sing": 307,
      "##om": 308,
      "##nt": 309,
      "Wal": 310,
      "##tt": 311,
      "Ro": 312,
      "##man": 313,
      "##av": 314,
      "##ur": 315,
      "Fly": 316,
      "Mar": 317,
      "Lu": 318,
      "##ie": 319,
      "##ick": 320,
      "##yan": 321,
      "And": 322,
      "##ed": 323,
      "Jo": 324,
      "##ey": 325,
      "Mat": 326,
      "##io": 327,
      "Ale": 328,
      "##ber": 329,
      "##yle": 330,
      "##it": 331,
      "##au": 332,
      "##ler": 333,
      "##ael": 334,
      "Ju": 335,
      "##im": 336,
      "##ley": 337,
      "##ro": 338,
      "Ke": 339,
      "##ce": 340,
      "##op": 341,
      "Al": 342,
      "Mc": 343,
      "##stin": 344,
      "Se": 345,
      "##co": 346,
      "Jr": 347,
      "##han": 348,
      "Nick": 349,
      "##ord": 350,
      "Chri": 351,
      "##ra": 352,
      "CA": 353,
      "CATCHER": 354,
      "Matt": 355,
      "Gar": 356,
      "##IG": 357,
      "Ty": 358,
      "##ia": 359,
      "##id": 360,
      "##ard": 361,
      "Ad": 362,
      "Ryan": 363,
      "##iel": 364,
      "Car": 365,
      "##ers": 366,
      "Luis": 367,
      "Kyle": 368,
      "##rew": 369,
      "Josh": 370,
      "##ble": 371,
      "##un": 372,
      "##ant": 373,
      "Co": 374,
      "##ast": 375,
      "Mich": 376,
      "Jake": 377,
      "Dou": 378,
      "Michael": 379,
      "##ian": 380,
      "##ach": 381,
      "##ell": 382,
      "##ner": 383,
      "##AM": 384,
      "##OR": 385,
      "Bre": 386,
      "##ow": 387,
      "De": 388,
      "Tre": 389,
      "##ND": 390,
      "Lin": 391,
      "##lor": 392,
      "##qu": 393,
      "Will": 394,
      "Ste": 395,
      "##AT": 396,
      "##te": 397,
      "Fr": 398,
      "##ier": 399,
      "##gu": 400,
      "##ge": 401,
      "Alex": 402,
      "##ald": 403,
      "##ustin": 404,
      "##aylor": 405,
      "##mer": 406,
      "##andon": 407,
      "Brandon": 408,
      "##ton": 409,
      "Tyler": 410,
      "Dav": 411,
      "Jon": 412,
      "Austin": 413,
      "##hon": 414,
      "José": 415,
      "Bo": 416,
      "SH": 417,
      "##TO": 418,
      "##TSTO": 419,
      "##ORTSTO": 420,
      "SHORTSTO": 421,
      "SHORTSTOP": 422,
      "##ía": 423,
      "##my": 424,
      "##rez": 425,
      "Christ": 426,
      "##eout": 427,
      "Ri": 428,
      "Ma": 429,
      "Out": 430,
      "Th": 431,
      "##rer": 432,
      "##sh": 433,
      "##athan": 434,
      "SE": 435,
      "##CO": 436,
      "SECO": 437,
      "SECOND": 438,
      "##vin": 439,
      "TH": 440,
      "##IR": 441,
      "THIR": 442,
      "THIRD": 443,
      "Fran": 444,
      "Andrew": 445,
      "##erson": 446,
      "##ab": 447,
      "##bert": 448,
      "Ed": 449,
      "Con": 450,
      "##ATE": 451,
      "LE": 452,
      "##FT": 453,
      "LEFT": 454,
      "Taylor": 455,
      "Pop": 456,
      "##dy": 457,
      "CEN": 458,
      "CENTER": 459,
      "##ff": 460,
      "Ra": 461,
      "Sh": 462,
      "##ny": 463,
      "Ram": 464,
      "Christian": 465,
      "##lo": 466,
      "##us": 467,
      "##RS": 468,
      "FIRS": 469,
      "FIRST": 470,
      "##bb": 471,
      "Per": 472,
      "Mike": 473,
      "##ern": 474,
      "RIG": 475,
      "##HT": 476,
      "RIGHT": 477,
      "##ordan": 478,
      "##ander": 479,
      "##hony": 480,
      "##orge": 481,
      "##oo": 482,
      "Ant": 483,
      "##ac": 484,
      "##ki": 485,
      "Jose": 486,
      "Dan": 487,
      "Bryan": 488,
      "HI": 489,
      "HITTER": 490,
      "##ir": 491,
      "Pe": 492,
      "Le": 493,
      "##go": 494,
      "##old": 495,
      "Har": 496,
      "Anthony": 497,
      "Hu": 498,
      "##ov": 499,
      "Cast": 500,
      "GAM": 501,
      "GAME": 502,
      "Cr": 503,
      "Ar": 504,
      "##ter": 505,
      "Rod": 506,
      "Sp": 507,
      "Su": 508,
      "##ale": 509,
      "Carl": 510,
      "Garc": 511,
      "Re": 512,
      "Fre": 513,
      "Jordan": 514,
      "##ah": 515,
      "##gh": 516,
      "##rick": 517,
      "##ren": 518,
      "##ap": 519,
      "##ry": 520,
      "##li": 521,
      "##ack": 522,
      "Sch": 523,
      "##ith": 524,
      "Thom": 525,
      "He": 526,
      "Joey": 527,
      "##olan": 528,
      "Sm": 529,
      "##th": 530,
      "David": 531,
      "##ndez": 532,
      "Smith": 533,
      "##ric": 534,
      "Man": 535,
      "##rí": 536,
      "Sant": 537,
      "DE": 538,
      "##NATE": 539,
      "##SIG": 540,
      "DESIG": 541,
      "##NATED": 542,
      "DESIGNATED": 543,
      "##ic": 544,
      "##ins": 545,
      "Je": 546,
      "##aul": 547,
      "Mart": 548,
      "Bl": 549,
      "##car": 550,
      "##án": 551,
      "La": 552,
      "##to": 553,
      "Zach": 554,
      "##wan": 555,
      "Tom": 556,
      "##gan": 557,
      "##ris": 558,
      "##raw": 559,
      "##rett": 560,
      "Wil": 561,
      "Cor": 562,
      "Carlos": 563,
      "Garrett": 564,
      "Mon": 565,
      "Hern": 566,
      "Run": 567,
      "McC": 568,
      "##ger": 569,
      "Home": 570,
      "##ong": 571,
      "Lo": 572,
      "Kevin": 573,
      "##ga": 574,
      "##mes": 575,
      "##aron": 576,
      "Andr": 577,
      "Aaron": 578,
      "##ven": 579,
      "Adam": 580,
      "##ll": 581,
      "##ario": 582,
      "Brad": 583,
      "##ado": 584,
      "##lay": 585,
      "Jorge": 586,
      "Joe": 587,
      "Jonathan": 588,
      "##ta": 589,
      "##ak": 590,
      "Marc": 591,
      "Tommy": 592,
      "Día": 593,
      "Díaz": 594,
      "Max": 595,
      "Ros": 596,
      "Chris": 597,
      "Jack": 598,
      "Justin": 599,
      "Bry": 600,
      "##ández": 601,
      "##ón": 602,
      "##all": 603,
      "##ield": 604,
      "Ab": 605,
      "##ert": 606,
      "##nter": 607,
      "Be": 608,
      "##rist": 609,
      "We": 610,
      "TE": 611,
      "TEAM": 612,
      "Hernández": 613,
      "Me": 614,
      "##len": 615,
      "##riel": 616,
      "Willi": 617,
      "Hunter": 618,
      "##andy": 619,
      "Rey": 620,
      "##arl": 621,
      "##ver": 622,
      "Walker": 623,
      "##lan": 624,
      "##ai": 625,
      "##he": 626,
      "Spen": 627,
      "##quez": 628,
      "Tur": 629,
      "Jar": 630,
      "Ger": 631,
      "##nez": 632,
      "Pat": 633,
      "García": 634,
      "##by": 635,
      "Kel": 636,
      "##guez": 637,
      "##vor": 638,
      "For": 639,
      "Trevor": 640,
      "##ford": 641,
      "Ph": 642,
      "Tr": 643,
      "Gre": 644,
      "Bu": 645,
      "Steven": 646,
      "##írez": 647,
      "Ramírez": 648,
      "##iz": 649,
      "##owe": 650,
      "##fael": 651,
      "Rafael": 652,
      "Patrick": 653,
      "##itt": 654,
      "##elson": 655,
      "Ho": 656,
      "Gri": 657,
      "Du": 658,
      "##dom": 659,
      "Bri": 660,
      "##rey": 661,
      "##inger": 662,
      "##bin": 663,
      "##cer": 664,
      "Spencer": 665,
      "##nor": 666,
      "##pson": 667,
      "Hay": 668,
      "Migu": 669,
      "Miguel": 670,
      "Nolan": 671,
      "Ne": 672,
      "Martin": 673,
      "##ich": 674,
      "##uz": 675,
      "Ben": 676,
      "##tch": 677,
      "##ott": 678,
      "Mor": 679,
      "##ph": 680,
      "##az": 681,
      "Marte": 682,
      "##énez": 683,
      "##iménez": 684,
      "Mer": 685,
      "Thomas": 686,
      "##és": 687,
      "Var": 688,
      "Luke": 689,
      "Is": 690,
      "Lowe": 691,
      "Par": 692,
      "Zack": 693,
      "##ani": 694,
      "Bar": 695,
      "##ña": 696,
      "Play": 697,
      "Connor": 698,
      "Or": 699,
      "##ze": 700,
      "##aldo": 701,
      "Anderson": 702,
      "Rosario": 703,
      "Col": 704,
      "##olds": 705,
      "Tor": 706,
      "Int": 707,
      "Jes": 708,
      "##ason": 709,
      "##ase": 710,
      "Cruz": 711,
      "##ury": 712,
      "Robert": 713,
      "##uel": 714,
      "##uck": 715,
      "Lan": 716,
      "##zz": 717,
      "Paul": 718,
      "Mill": 719,
      "Ian": 720,
      "Drew": 721,
      "Est": 722,
      "Os": 723,
      "Jul": 724,
      "##res": 725,
      "##jas": 726,
      "Rojas": 727,
      "##ylan": 728,
      "Ren": 729,
      "Gon": 730,
      "Bell": 731,
      "Don": 732,
      "McK": 733,
      "##ng": 734,
      "Cal": 735,
      "William": 736,
      "Sam": 737,
      "##yn": 738,
      "Dom": 739,
      "Bur": 740,
      "##ceout": 741,
      "Cl": 742,
      "##les": 743,
      "##yles": 744,
      "Dylan": 745,
      "Castro": 746,
      "##reras": 747,
      "##ig": 748,
      "##avin": 749,
      "##ve": 750,
      "Miller": 751,
      "Grounded": 752,
      "Into": 753,
      "Cont": 754,
      "##rera": 755,
      "##ano": 756,
      "##var": 757,
      "Contreras": 758,
      "Ha": 759,
      "Corey": 760,
      "##gers": 761,
      "Craw": 762,
      "Crawford": 763,
      "Corbin": 764,
      "El": 765,
      "Jeff": 766,
      "##ade": 767,
      "Turner": 768,
      "Davis": 769,
      "##hn": 770,
      "Ver": 771,
      "Cab": 772,
      "##cis": 773,
      "##ucker": 774,
      "##enz": 775,
      "##der": 776,
      "##IELD": 777,
      "##FIELD": 778,
      "Riley": 779,
      "##vis": 780,
      "Ru": 781,
      "##van": 782,
      "##eman": 783,
      "Wh": 784,
      "##med": 785,
      "Mou": 786,
      "##bby": 787,
      "Cron": 788,
      "Andrés": 789,
      "Francis": 790,
      "Bobby": 791,
      "Whit": 792,
      "James": 793,
      "Mu": 794,
      "Gonz": 795,
      "##ando": 796,
      "Fred": 797,
      "Kelly": 798,
      "Brend": 799,
      "Daniel": 800,
      "##dor": 801,
      "##cob": 802,
      "Francisco": 803,
      "Marcus": 804,
      "En": 805,
      "OU": 806,
      "##TFIELD": 807,
      "OUTFIELD": 808,
      "Mitch": 809,
      "##fo": 810,
      "Urí": 811,
      "Urías": 812,
      "Mark": 813,
      "##ain": 814,
      "Logan": 815,
      "So": 816,
      "Fra": 817,
      "Nathan": 818,
      "Martinez": 819,
      "John": 820,
      "##ino": 821,
      "Brendan": 822,
      "By": 823,
      "Jav": 824,
      "##ass": 825,
      "##ik": 826,
      "##die": 827,
      "Merri": 828,
      "##ward": 829,
      "Jason": 830,
      "##ada": 831,
      "Tucker": 832,
      "##ere": 833,
      "Brent": 834,
      "##her": 835,
      "##alta": 836,
      "Ron": 837,
      "##ski": 838,
      "Peralta": 839,
      "Sho": 840,
      "Dur": 841,
      "Gu": 842,
      "##ovan": 843,
      "Tim": 844,
      "Javier": 845,
      "Ramón": 846,
      "##hei": 847,
      "Donovan": 848,
      "Ge": 849,
      "No": 850,
      "Shohei": 851,
      "Oh": 852,
      "##chman": 853,
      "##ín": 854,
      "##tani": 855,
      "Ohtani": 856,
      "Bryce": 857,
      "Kwan": 858,
      "##one": 859,
      "Field": 860,
      "Gray": 861,
      "##chez": 862,
      "##andal": 863,
      "##ardo": 864,
      "Cole": 865,
      "##erner": 866,
      "Moo": 867,
      "##se": 868,
      "George": 869,
      "##ico": 870,
      "##aw": 871,
      "Xander": 872,
      "Boga": 873,
      "##erts": 874,
      "Bogaerts": 875,
      "Reyn": 876,
      "##mon": 877,
      "Alec": 878,
      "##armer": 879,
      "Duran": 880,
      "Sean": 881,
      "Ced": 882,
      "Julio": 883,
      "##uk": 884,
      "##art": 885,
      "Ruiz": 886,
      "Gonzale": 887,
      "##nes": 888,
      "Er": 889,
      "RU": 890,
      "##NN": 891,
      "Hend": 892,
      "RUNN": 893,
      "RUNNER": 894,
      "Nelson": 895,
      "Giménez": 896,
      "Nico": 897,
      "Hoerner": 898,
      "Charl": 899,
      "Charlie": 900,
      "##app": 901,
      "Rodrí": 902,
      "Rodríguez": 903,
      "##rero": 904,
      "Eli": 905,
      "##ien": 906,
      "Perdom": 907,
      "Perdomo": 908,
      "Wade": 909,
      "Gal": 910,
      "Amed": 911,
      "Thompson": 912,
      "Cas": 913,
      "##ugo": 914,
      "##oll": 915,
      "Qu": 916,
      "##tor": 917,
      "##tel": 918,
      "Ketel": 919,
      "##unn": 920,
      "Rich": 921,
      "Dev": 922,
      "Freeman": 923,
      "Devers": 924,
      "##reu": 925,
      "Abreu": 926,
      "##ne": 927,
      "Alek": 928,
      "Hill": 929,
      "##avis": 930,
      "Farmer": 931,
      "20": 932,
      "##ana": 933,
      "Alvar": 934,
      "McM": 935,
      "Happ": 936,
      "Pé": 937,
      "Pérez": 938,
      "##ker": 939,
      "##ahon": 940,
      "##our": 941,
      "McMahon": 942,
      "Ko": 943,
      "Juan": 944,
      "Cody": 945,
      "Trist": 946,
      "##quiel": 947,
      "Em": 948,
      "Es": 949,
      "Wall": 950,
      "Myles": 951,
      "##enn": 952,
      "Geraldo": 953,
      "Eze": 954,
      "Ezequiel": 955,
      "Cabrera": 956,
      "DATE": 957,
      "END": 958,
      "ST": 959,
      "VEN": 960,
      "WE": 961,
      "##AR": 962,
      "##UE": 963,
      "##ATHER": 964,
      "202": 965,
      "STAR": 966,
      "VENUE": 967,
      "WEATHER": 968,
      "START": 969,
      "##cu": 970,
      "##cast": 971,
      "Gur": 972,
      "Gurriel": 973,
      "##ies": 974,
      "##ake": 975,
      "Straw": 976,
      "Sán": 977,
      "Sánchez": 978,
      "Garcia": 979,
      "Daul": 980,
      "Daulton": 981,
      "Verd": 982,
      "Verdugo": 983,
      "Brett": 984,
      "##so": 985,
      "Kir": 986,
      "Gi": 987,
      "##sho": 988,
      "##árez": 989,
      "Suárez": 990,
      "Ward": 991,
      "Varsho": 992,
      "##mid": 993,
      "##midt": 994,
      "II": 995,
      "##onso": 996,
      "Steph": 997,
      "Stephen": 998,
      "Black": 999,
      "Hen": 1000,
      "Gab": 1001,
      "Seth": 1002,
      "Te": 1003,
      "Santander": 1004,
      "Naylor": 1005,
      "Blake": 1006,
      "Jared": 1007,
      "##ans": 1008,
      "##cott": 1009,
      "Reynolds": 1010,
      "##inic": 1011,
      "##ks": 1012,
      "Dominic": 1013,
      "##itch": 1014,
      "She": 1015,
      "Cam": 1016,
      "Ton": 1017,
      "Cle": 1018,
      "Ol": 1019,
      "Win": 1020,
      "##ba": 1021,
      "##hm": 1022,
      "Str": 1023,
      "##iah": 1024,
      "##zier": 1025,
      "##manuel": 1026,
      "##llins": 1027,
      "Mullins": 1028,
      "Cedric": 1029,
      "##ip": 1030,
      "Soto": 1031,
      "##ús": 1032,
      "Jesús": 1033,
      "Alvarez": 1034,
      "Can": 1035,
      "##augh": 1036,
      "Hays": 1037,
      "Wis": 1038,
      "##zu": 1039,
      "Luc": 1040,
      "Pitch": 1041,
      "Suzu": 1042,
      "Suzuki": 1043,
      "Sem": 1044,
      "Hit": 1045,
      "Carr": 1046,
      "##ini": 1047,
      "Green": 1048,
      "Eric": 1049,
      "##ish": 1050,
      "Mad": 1051,
      "Scott": 1052,
      "Kim": 1053,
      "Vel": 1054,
      "##eo": 1055,
      "##ood": 1056,
      "Gavin": 1057,
      "##illo": 1058,
      "Tan": 1059,
      "Marsh": 1060,
      "Pham": 1061,
      "Fri": 1062,
      "Ow": 1063,
      "##uts": 1064,
      "Schw": 1065,
      "Semien": 1066,
      "Reyes": 1067,
      "Jere": 1068,
      "##lin": 1069,
      "##field": 1070,
      "Tanner": 1071,
      "Mateo": 1072,
      "##ifo": 1073,
      "Chap": 1074,
      "##áz": 1075,
      "##ázquez": 1076,
      "Jacob": 1077,
      "##ars": 1078,
      "##own": 1079,
      "Harold": 1080,
      "Fried": 1081,
      "##aver": 1082,
      "Ind": 1083,
      "Witt": 1084,
      "Yu": 1085,
      "##opher": 1086,
      "11": 1087,
      "##ero": 1088,
      "##ten": 1089,
      "Swan": 1090,
      "Swanson": 1091,
      "India": 1092,
      "Gabriel": 1093,
      "Mur": 1094,
      "##áez": 1095,
      "Do": 1096,
      "Her": 1097,
      "Olson": 1098,
      "Mach": 1099,
      "Evan": 1100,
      "Enri": 1101,
      "Chapman": 1102,
      "##gen": 1103,
      "##que": 1104,
      "Wong": 1105,
      "Fern": 1106,
      "Trea": 1107,
      "Greene": 1108,
      "##gifo": 1109,
      "Rengifo": 1110,
      "Fle": 1111,
      "##ntcast": 1112,
      "Mountcast": 1113,
      "Gonzalez": 1114,
      "Mountcastle": 1115,
      "Vo": 1116,
      "Allen": 1117,
      "Sal": 1118,
      "##mel": 1119,
      "Pet": 1120,
      "Guer": 1121,
      "##mo": 1122,
      "Randy": 1123,
      "Bradley": 1124,
      "##pez": 1125,
      "Williams": 1126,
      "Vic": 1127,
      "Victor": 1128,
      "DJ": 1129,
      "Tony": 1130,
      "##gel": 1131,
      "Trey": 1132,
      "##zar": 1133,
      "Enrique": 1134,
      "McKin": 1135,
      "Jeremy": 1136,
      "France": 1137,
      "Senz": 1138,
      "##cy": 1139,
      "Spr": 1140,
      "Ruts": 1141,
      "Adley": 1142,
      "Rutschman": 1143,
      "Torres": 1144,
      "##be": 1145,
      "##ena": 1146,
      "##ya": 1147,
      "Triston": 1148,
      "##kie": 1149,
      "Ham": 1150,
      "Machado": 1151,
      "##rison": 1152,
      "Harrison": 1153,
      "##iya": 1154,
      "Seiya": 1155,
      "Sand": 1156,
      "Travis": 1157,
      "Lop": 1158,
      "##sman": 1159,
      "Freddie": 1160,
      "Bad": 1161,
      "##gman": 1162,
      "Willy": 1163,
      "##ames": 1164,
      "##ory": 1165,
      "Bregman": 1166,
      "##ias": 1167,
      "Brown": 1168,
      "Lucas": 1169,
      "Dr": 1170,
      "Mau": 1171,
      "##ricio": 1172,
      "Mauricio": 1173,
      "Rogers": 1174,
      "##arn": 1175,
      "##adim": 1176,
      "Drury": 1177,
      "##adimir": 1178,
      "##pe": 1179,
      "Adames": 1180,
      "Oscar": 1181,
      "TJ": 1182,
      "Trent": 1183,
      "Castell": 1184,
      "##ladimir": 1185,
      "##gas": 1186,
      "Gley": 1187,
      "Gleyber": 1188,
      "Mo": 1189,
      "##tte": 1190,
      "Vladimir": 1191,
      "Randal": 1192,
      "##chuk": 1193,
      "Grichuk": 1194,
      "Vargas": 1195,
      "Nathaniel": 1196,
      "Pete": 1197,
      "Shan": 1198,
      "Shane": 1199,
      "Peña": 1200,
      "Guerrero": 1201,
      "Owen": 1202,
      "##oper": 1203,
      "Cooper": 1204,
      "Edu": 1205,
      "Emmanuel": 1206,
      "Bett": 1207,
      "Chad": 1208,
      "##de": 1209,
      "Castillo": 1210,
      "##ling": 1211,
      "##anos": 1212,
      "Castellanos": 1213,
      "##xton": 1214,
      "Mookie": 1215,
      "Betts": 1216,
      "71": 1217,
      "Seong": 1218,
      "##aza": 1219,
      "Crist": 1220,
      "Ronald": 1221,
      "Harris": 1222,
      "##pen": 1223,
      "##ae": 1224,
      "Eu": 1225,
      "Carroll": 1226,
      "##iri": 1227,
      "Blackmon": 1228,
      "##ette": 1229,
      "Stephenson": 1230,
      "Acu": 1231,
      "##ang": 1232,
      "Acuña": 1233,
      "Cav": 1234,
      "Adol": 1235,
      "Bich": 1236,
      "Brian": 1237,
      "Bichette": 1238,
      "##aci": 1239,
      "Wisdom": 1240,
      "##fa": 1241,
      "2023": 1242,
      "Peterson": 1243,
      "Fernando": 1244,
      "Yel": 1245,
      "Edward": 1246,
      "Yelich": 1247,
      "##phy": 1248,
      "Murphy": 1249,
      "Frazier": 1250,
      "Lopez": 1251,
      "##ager": 1252,
      "##ram": 1253,
      "##nan": 1254,
      "Aro": 1255,
      "Yon": 1256,
      "Willson": 1257,
      "##ges": 1258,
      "Mun": 1259,
      "##sby": 1260,
      "Dansby": 1261,
      "Springer": 1262,
      "Vaugh": 1263,
      "Vaughn": 1264,
      "Trout": 1265,
      "Bryson": 1266,
      "##gio": 1267,
      "CJ": 1268,
      "Santana": 1269,
      "Golds": 1270,
      "Lane": 1271,
      "##chmidt": 1272,
      "Goldschmidt": 1273,
      "Morel": 1274,
      "Christopher": 1275,
      "Stott": 1276,
      "##aro": 1277,
      "Lindor": 1278,
      "##inski": 1279,
      "Ló": 1280,
      "Friedl": 1281,
      "López": 1282,
      "Sac": 1283,
      "Elvis": 1284,
      "##lez": 1285,
      "##zarena": 1286,
      "Arozarena": 1287,
      "Seager": 1288,
      "##ria": 1289,
      "Edman": 1290,
      "##cia": 1291,
      "##raez": 1292,
      "Arraez": 1293,
      "Adolis": 1294,
      "##airo": 1295,
      "##icks": 1296,
      "##aleb": 1297,
      "##des": 1298,
      "##rea": 1299,
      "Manny": 1300,
      "Correa": 1301,
      "Isa": 1302,
      "##genio": 1303,
      "Eugenio": 1304,
      "Adri": 1305,
      "##arth": 1306,
      "McCarth": 1307,
      "McCarthy": 1308,
      "##rada": 1309,
      "Merrifield": 1310,
      "##enw": 1311,
      "Estrada": 1312,
      "Tat": 1313,
      "Abram": 1314,
      "Abrams": 1315,
      "##per": 1316,
      "Muncy": 1317,
      "Eduardo": 1318,
      "Colin": 1319,
      "##air": 1320,
      "Gunn": 1321,
      "Henderson": 1322,
      "Gunnar": 1323,
      "Martín": 1324,
      "Leo": 1325,
      "Jones": 1326,
      "Ped": 1327,
      "Alb": 1328,
      "Aren": 1329,
      "Rodgers": 1330,
      "Arenado": 1331,
      "Zac": 1332,
      "##ola": 1333,
      "Yandy": 1334,
      "##NC": 1335,
      "##orth": 1336,
      "##dge": 1337,
      "Senzel": 1338,
      "Jackson": 1339,
      "Este": 1340,
      "Bai": 1341,
      "##tero": 1342,
      "Bailey": 1343,
      "Ozz": 1344,
      "Albies": 1345,
      "Ozzie": 1346,
      "Carpen": 1347,
      "Jonah": 1348,
      "Carpenter": 1349,
      "##illar": 1350,
      "Bohm": 1351,
      "Gil": 1352,
      "SC": 1353,
      "##IN": 1354,
      "##ORIN": 1355,
      "SCORIN": 1356,
      "SCORING": 1357,
      "##riguez": 1358,
      "##edes": 1359,
      "Rodriguez": 1360,
      "Schwar": 1361,
      "Pro": 1362,
      "##oscar": 1363,
      "Teoscar": 1364,
      "Flo": 1365,
      "Jiménez": 1366,
      "Elias": 1367,
      "##iner": 1368,
      "Bellinger": 1369,
      "##sham": 1370,
      "Grisham": 1371,
      "Ji": 1372,
      "Lour": 1373,
      "Lourdes": 1374,
      "Montero": 1375,
      "Schwarber": 1376,
      "Mont": 1377,
      "Hicks": 1378,
      "Dar": 1379,
      "Steer": 1380,
      "Danny": 1381,
      "Alej": 1382,
      "Law": 1383,
      "Cronenw": 1384,
      "Cronenworth": 1385,
      "Thairo": 1386,
      "Ken": 1387,
      "Kre": 1388,
      "Mele": 1389,
      "Báez": 1390,
      "Dia": 1391,
      "PINC": 1392,
      "Diaz": 1393,
      "PINCH": 1394,
      "##osa": 1395,
      "Melendez": 1396,
      "##eil": 1397,
      "##Neil": 1398,
      "##ieu": 1399,
      "McNeil": 1400,
      "Ser": 1401,
      "##elt": 1402,
      "Albert": 1403,
      "##stry": 1404,
      "McKinstry": 1405,
      "Alc": 1406,
      "Isaac": 1407,
      "##Mah": 1408,
      "LeMah": 1409,
      "LeMahieu": 1410,
      "##inte": 1411,
      "##ndi": 1412,
      "Beninte": 1413,
      "Benintendi": 1414,
      "Franco": 1415,
      "##et": 1416,
      "Hayes": 1417,
      "May": 1418,
      "Nim": 1419,
      "Nimmo": 1420,
      "Robb": 1421,
      "Bat": 1422,
      "Solan": 1423,
      "Solano": 1424,
      "Chas": 1425,
      "Lau": 1426,
      "##oug": 1427,
      "##kelson": 1428,
      "Torkelson": 1429,
      "Ig": 1430,
      "##lesias": 1431,
      "Iglesias": 1432,
      "MJ": 1433,
      "Robbie": 1434,
      "##vera": 1435,
      "##roe": 1436,
      "Gome": 1437,
      "##andel": 1438,
      "Odor": 1439,
      "Roug": 1440,
      "##ned": 1441,
      "##owski": 1442,
      "Rougned": 1443,
      "##froe": 1444,
      "Renfroe": 1445,
      "Sol": 1446,
      "Perez": 1447,
      "Yo": 1448,
      "Rom": 1449,
      "Paredes": 1450,
      "Tri": 1451,
      "##oval": 1452,
      "Jei": 1453,
      "Wood": 1454,
      "##uris": 1455,
      "Bren": 1456,
      "Mas": 1457,
      "##kins": 1458,
      "Pal": 1459,
      "Taver": 1460,
      "Leody": 1461,
      "Taveras": 1462,
      "##lei": 1463,
      "Yan": 1464,
      "Tov": 1465,
      "##ser": 1466,
      "Tovar": 1467,
      "##roy": 1468,
      "##iss": 1469,
      "Alonso": 1470,
      "Osw": 1471,
      "##lando": 1472,
      "Johan": 1473,
      "##tega": 1474,
      "Ortega": 1475,
      "Orlando": 1476,
      "Henry": 1477,
      "##cini": 1478,
      "Mancini": 1479,
      "##ara": 1480,
      "##mp": 1481,
      "Ur": 1482,
      "Esp": 1483,
      "##ura": 1484,
      "##olten": 1485,
      "Sosa": 1486,
      "Stu": 1487,
      "Vald": 1488,
      "Pab": 1489,
      "Wander": 1490,
      "##uto": 1491,
      "##illip": 1492,
      "Phillip": 1493,
      "Candel": 1494,
      "##nie": 1495,
      "Jeimer": 1496,
      "Candelario": 1497,
      "Chase": 1498,
      "Wilson": 1499,
      "Ak": 1500,
      "##enzie": 1501,
      "##rig": 1502,
      "Alf": 1503,
      "Adrian": 1504,
      "Arcia": 1505,
      "##stak": 1506,
      "Moustak": 1507,
      "Moustakas": 1508,
      "Jesse": 1509,
      "Nola": 1510,
      "##int": 1511,
      "Caleb": 1512,
      "Merrill": 1513,
      "Wilmer": 1514,
      "##erry": 1515,
      "Judge": 1516,
      "##bón": 1517,
      "Dubón": 1518,
      "##ings": 1519,
      "Vol": 1520,
      "Volpe": 1521,
      "##uj": 1522,
      "Santos": 1523,
      "Brennan": 1524,
      "McG": 1525,
      "Gallen": 1526,
      "Ci": 1527,
      "Lars": 1528,
      "Vázquez": 1529,
      "##winski": 1530,
      "Suwinski": 1531,
      "Maik": 1532,
      "Cur": 1533,
      "##bur": 1534,
      "##rickson": 1535,
      "##far": 1536,
      "##utch": 1537,
      "Pablo": 1538,
      "Cristian": 1539,
      "Miles": 1540,
      "Valdez": 1541,
      "Jurickson": 1542,
      "Profar": 1543,
      "Dal": 1544,
      "Fraley": 1545,
      "LaM": 1546,
      "##pler": 1547,
      "Kepler": 1548,
      "Isiah": 1549,
      "##una": 1550,
      "Alt": 1551,
      "Jung": 1552,
      "Gilbert": 1553,
      "Jace": 1554,
      "Roo": 1555,
      "14": 1556,
      "Fale": 1557,
      "Kiner": 1558,
      "Greg": 1559,
      "Falefa": 1560,
      "##ele": 1561,
      "##zzo": 1562,
      "Rizzo": 1563,
      "Maikel": 1564,
      "Andrus": 1565,
      "Noo": 1566,
      "##tba": 1567,
      "Nootba": 1568,
      "Nootbaar": 1569,
      "Rob": 1570,
      "##den": 1571,
      "Clay": 1572,
      "Wat": 1573,
      "Gomes": 1574,
      "##uve": 1575,
      "Altuve": 1576,
      "Raley": 1577,
      "##olo": 1578,
      "##ñez": 1579,
      "##onte": 1580,
      "Jim": 1581,
      "Flores": 1582,
      "Freddy": 1583,
      "Oz": 1584,
      "Arroy": 1585,
      "Arroyo": 1586,
      "Kris": 1587,
      "Tatis": 1588,
      "##ela": 1589,
      "Ozuna": 1590,
      "Kemp": 1591,
      "Hig": 1592,
      "Rivera": 1593,
      "Cho": 1594,
      "Err": 1595,
      "Gor": 1596,
      "Oli": 1597,
      "Hou": 1598,
      "##eses": 1599,
      "Choi": 1600,
      "##hou": 1601,
      "Marcell": 1602,
      "Men": 1603,
      "Madrig": 1604,
      "Madrigal": 1605,
      "##osh": 1606,
      "LaMonte": 1607,
      "Jarren": 1608,
      "Error": 1609,
      "##lock": 1610,
      "##mick": 1611,
      "##ormick": 1612,
      "McCormick": 1613,
      "##ynn": 1614,
      "Vier": 1615,
      "##ive": 1616,
      "Outman": 1617,
      "Vierling": 1618,
      "##mán": 1619,
      "##tes": 1620,
      "Gorman": 1621,
      "Gio": 1622,
      "Li": 1623,
      "Burger": 1624,
      "Hey": 1625,
      "Heyward": 1626,
      "##ador": 1627,
      "##vas": 1628,
      "Casas": 1629,
      "##alm": 1630,
      "Yosh": 1631,
      "Manuel": 1632,
      "Fer": 1633,
      "##illon": 1634,
      "##iers": 1635,
      "Meneses": 1636,
      "Gros": 1637,
      "##andro": 1638,
      "Duff": 1639,
      "##ha": 1640,
      "Salv": 1641,
      "Vott": 1642,
      "Votto": 1643,
      "Realm": 1644,
      "Realmuto": 1645,
      "Kirk": 1646,
      "Webb": 1647,
      "Walls": 1648,
      "Jimmy": 1649,
      "Walsh": 1650,
      "Salvador": 1651,
      "Heim": 1652,
      "Lyles": 1653,
      "Keller": 1654,
      "Brice": 1655,
      "Clar": 1656,
      "Hampson": 1657,
      "##ma": 1658,
      "##azquez": 1659,
      "Ash": 1660,
      "Kirby": 1661,
      "Vin": 1662,
      "##astr": 1663,
      "McCutch": 1664,
      "McCutchen": 1665,
      "Harper": 1666,
      "##ght": 1667,
      "Clarke": 1668,
      "##ash": 1669,
      "Ralei": 1670,
      "Raleigh": 1671,
      "Esteury": 1672,
      "Yordan": 1673,
      "Canha": 1674,
      "Yonathan": 1675,
      "Phillips": 1676,
      "13": 1677,
      "##acios": 1678,
      "Palacios": 1679,
      "Andy": 1680,
      "Story": 1681,
      "Cleme": 1682,
      "##aker": 1683,
      "##bel": 1684,
      "Doyle": 1685,
      "Pr": 1686,
      "##tta": 1687,
      "Carson": 1688,
      "Mass": 1689,
      "Massey": 1690,
      "##than": 1691,
      "Wend": 1692,
      "Kee": 1693,
      "Yastr": 1694,
      "##mski": 1695,
      "##zemski": 1696,
      "Yastrzemski": 1697,
      "##gar": 1698,
      "Hearn": 1699,
      "##ison": 1700,
      "##ibert": 1701,
      "Hed": 1702,
      "Rivas": 1703,
      "Velazquez": 1704,
      "Big": 1705,
      "##tcher": 1706,
      "Fletcher": 1707,
      "New": 1708,
      "Bert": 1709,
      "Berti": 1710,
      "##ese": 1711,
      "##ida": 1712,
      "##ft": 1713,
      "Keibert": 1714,
      "##cke": 1715,
      "Fair": 1716,
      "Pive": 1717,
      "Pivetta": 1718,
      "##eland": 1719,
      "Freeland": 1720,
      "Tel": 1721,
      "##ngel": 1722,
      "Eddie": 1723,
      "Ari": 1724,
      "##renz": 1725,
      "Lorenz": 1726,
      "Germán": 1727,
      "##ater": 1728,
      "Duffy": 1729,
      "Det": 1730,
      "##da": 1731,
      "Daza": 1732,
      "Call": 1733,
      "Matthe": 1734,
      "Matthew": 1735,
      "Ku": 1736,
      "Row": 1737,
      "Hedges": 1738,
      "Die": 1739,
      "##oudy": 1740,
      "Shaw": 1741,
      "Cloudy": 1742,
      "##anda": 1743,
      "Soler": 1744,
      "Maton": 1745,
      "Kier": 1746,
      "##ansen": 1747,
      "##maier": 1748,
      "Tellez": 1749,
      "Kiermaier": 1750,
      "Dean": 1751,
      "Arias": 1752,
      "Turang": 1753,
      "Espin": 1754,
      "Bie": 1755,
      "Bieber": 1756,
      "##iago": 1757,
      "Santiago": 1758,
      "Rowdy": 1759,
      "Alejandro": 1760,
      "Grossman": 1761,
      "Ber": 1762,
      "##meson": 1763,
      "Jameson": 1764,
      "Espinal": 1765,
      "Ta": 1766,
      "##mann": 1767,
      "Park": 1768,
      "##ent": 1769,
      "Alan": 1770,
      "##Jong": 1771,
      "DeJong": 1772,
      "Reese": 1773,
      "Jansen": 1774,
      "##nyder": 1775,
      "##ron": 1776,
      "##hl": 1777,
      "Cavan": 1778,
      "Biggio": 1779,
      "Ele": 1780,
      "##huris": 1781,
      "Elehuris": 1782,
      "Reid": 1783,
      "Pavin": 1784,
      "##ndo": 1785,
      "Brenton": 1786,
      "##reano": 1787,
      "##ayan": 1788,
      "Barnes": 1789,
      "Laureano": 1790,
      "Keegan": 1791,
      "Kolten": 1792,
      "##ás": 1793,
      "Joc": 1794,
      "Pederson": 1795,
      "##onado": 1796,
      "##aldonado": 1797,
      "##olas": 1798,
      "##nder": 1799,
      "Sandoval": 1800,
      "Casey": 1801,
      "Escob": 1802,
      "Noah": 1803,
      "Gian": 1804,
      "Stant": 1805,
      "##carlo": 1806,
      "Giancarlo": 1807,
      "Stanton": 1808,
      "Bryant": 1809,
      "##loy": 1810,
      "Bau": 1811,
      "Siri": 1812,
      "Maldonado": 1813,
      "##gome": 1814,
      "Montgome": 1815,
      "Montgomery": 1816,
      "Cu": 1817,
      "Villar": 1818,
      "##uch": 1819,
      "##atak": 1820,
      "Sheet": 1821,
      "Masatak": 1822,
      "Yoshida": 1823,
      "Sheets": 1824,
      "Masataka": 1825,
      "Noda": 1826,
      "Jackie": 1827,
      "You": 1828,
      "Young": 1829,
      "##axton": 1830,
      "My": 1831,
      "Ort": 1832,
      "##jo": 1833,
      "##rill": 1834,
      "##antrill": 1835,
      "Quantrill": 1836,
      "Kremer": 1837,
      "##fs": 1838,
      "Refs": 1839,
      "Refsnyder": 1840,
      "##right": 1841,
      "Kn": 1842,
      "Escobar": 1843,
      "Lam": 1844,
      "Brayan": 1845,
      "Steele": 1846,
      "Rooker": 1847,
      "##mers": 1848,
      "Detmers": 1849,
      "##red": 1850,
      "##rence": 1851,
      "Lawrence": 1852,
      "III": 1853,
      "Moore": 1854,
      "##andez": 1855,
      "##mil": 1856,
      "##mani": 1857,
      "Franmil": 1858,
      "Bum": 1859,
      "Yas": 1860,
      "Calhou": 1861,
      "Calhoun": 1862,
      "##olfo": 1863,
      "Rodolfo": 1864,
      "Bader": 1865,
      "Cord": 1866,
      "Cordero": 1867,
      "Gallo": 1868,
      "Lou": 1869,
      "Eloy": 1870,
      "Mason": 1871,
      "Kerry": 1872,
      "Mik": 1873,
      "Belt": 1874,
      "Ce": 1875,
      "Griff": 1876,
      "Alexander": 1877,
      "Dunn": 1878,
      "Margo": 1879,
      "Margot": 1880,
      "##bec": 1881,
      "Dalbec": 1882,
      "##win": 1883,
      "Alfonso": 1884,
      "Nicky": 1885,
      "Bass": 1886,
      "McKenn": 1887,
      "McKenna": 1888,
      "Shea": 1889,
      "Grandal": 1890,
      "Yasmani": 1891,
      "Isbel": 1892,
      "McL": 1893,
      "Benson": 1894,
      "##ile": 1895,
      "##ann": 1896,
      "Jun": 1897,
      "Hos": 1898,
      "##cada": 1899,
      "Moncada": 1900,
      "Yoán": 1901,
      "Sn": 1902,
      "Wie": 1903,
      "Wiemer": 1904,
      "##aldi": 1905,
      "Il": 1906,
      "Dane": 1907,
      "Stone": 1908,
      "Ryn": 1909,
      "Ryne": 1910,
      "Langel": 1911,
      "Griffin": 1912,
      "Langeliers": 1913,
      "Grah": 1914,
      "Graham": 1915,
      "Mey": 1916,
      "##ourt": 1917,
      "Gom": 1918,
      "Gomber": 1919,
      "Bae": 1920,
      "Hwan": 1921,
      "##ank": 1922,
      "Eov": 1923,
      "Eovaldi": 1924,
      "##bach": 1925,
      "##rit": 1926,
      "##mu": 1927,
      "Ib": 1928,
      "##áñez": 1929,
      "Richard": 1930,
      "Ibáñez": 1931,
      "Ir": 1932,
      "Polan": 1933,
      "Phil": 1934,
      "Yuli": 1935,
      "Polanco": 1936,
      "##maro": 1937,
      "Tap": 1938,
      "Jean": 1939,
      "Elly": 1940,
      "Tapia": 1941,
      "Sandy": 1942,
      "##for": 1943,
      "Confor": 1944,
      "Carlson": 1945,
      "Conforto": 1946,
      "##demaro": 1947,
      "Ildemaro": 1948,
      "Los": 1949,
      "Well": 1950,
      "##ui": 1951,
      "Wells": 1952,
      "##do": 1953,
      "##court": 1954,
      "##dmy": 1955,
      "Aledmy": 1956,
      "Aledmys": 1957,
      "##ka": 1958,
      "##ough": 1959,
      "Gerrit": 1960,
      "##reno": 1961,
      "Moreno": 1962,
      "Ble": 1963,
      "##oman": 1964,
      "Stroman": 1965,
      "To": 1966,
      "##doo": 1967,
      "Kelen": 1968,
      "Trejo": 1969,
      "Jarred": 1970,
      "Baddoo": 1971,
      "Akil": 1972,
      "Kelenic": 1973,
      "McLain": 1974,
      "Hol": 1975,
      "##ss": 1976,
      "##za": 1977,
      "Micke": 1978,
      "Mickey": 1979,
      "Edmu": 1980,
      "Edmundo": 1981,
      "##ore": 1982,
      "##ort": 1983,
      "Wendle": 1984,
      "Oswaldo": 1985,
      "Smy": 1986,
      "Smyly": 1987,
      "##ely": 1988,
      "##vall": 1989,
      "Duvall": 1990,
      "##br": 1991,
      "Meyers": 1992,
      "West": 1993,
      "Newman": 1994,
      "Mikolas": 1995,
      "Seg": 1996,
      "Irvin": 1997,
      "##lien": 1998,
      "##iak": 1999,
      "Bethan": 2000,
      "Bethancourt": 2001,
      "##shela": 2002,
      "Urshela": 2003,
      "##ouard": 2004,
      "Julien": 2005,
      "Edouard": 2006,
      "##olm": 2007,
      "Jazz": 2008,
      "Chish": 2009,
      "Bradish": 2010,
      "Chisholm": 2011,
      "Ford": 2012,
      "White": 2013,
      "Maile": 2014,
      "Segura": 2015,
      "##raft": 2016,
      "Stuart": 2017,
      "Olivar": 2018,
      "Wach": 2019,
      "##craft": 2020,
      "Wacha": 2021,
      "##ndon": 2022,
      "Rendon": 2023,
      "Baty": 2024,
      "Curt": 2025,
      "Neill": 2026,
      "Tau": 2027,
      "Prat": 2028,
      "Tauchman": 2029,
      "##ei": 2030,
      "##arling": 2031,
      "Ashcraft": 2032,
      "Andre": 2033,
      "Lorenzen": 2034,
      "Sl": 2035,
      "Starling": 2036,
      "##str": 2037,
      "##ob": 2038,
      "##chil": 2039,
      "##edy": 2040,
      "Fairchil": 2041,
      "Fairchild": 2042,
      "Olivares": 2043,
      "Lance": 2044,
      "##guero": 2045,
      "Mead": 2046,
      "##ning": 2047,
      "Peguero": 2048,
      "##olit": 2049,
      "##elo": 2050,
      "Herrera": 2051,
      "Adams": 2052,
      "Moniak": 2053,
      "Baker": 2054,
      "Cease": 2055,
      "Pin": 2056,
      "##ham": 2057,
      "##ríos": 2058,
      "Johnson": 2059,
      "Berríos": 2060,
      "Bro": 2061,
      "Robertson": 2062,
      "Vogel": 2063,
      "##zer": 2064,
      "##aiss": 2065,
      "Gau": 2066,
      "Min": 2067,
      "Jeffers": 2068,
      "Pratto": 2069,
      "##arez": 2070,
      "King": 2071,
      "##low": 2072,
      "Lon": 2073,
      "##goria": 2074,
      "Longoria": 2075,
      "Angel": 2076,
      "##aldson": 2077,
      "Donaldson": 2078,
      "AJ": 2079,
      "Kenn": 2080,
      "Adell": 2081,
      "Burnes": 2082,
      "Kennedy": 2083,
      "Garver": 2084,
      "Tyr": 2085,
      "Tyrone": 2086,
      "Del": 2087,
      "Vogelbach": 2088,
      "##chy": 2089,
      "Franchy": 2090,
      "Gausman": 2091,
      "##vie": 2092,
      "##eler": 2093,
      "##ala": 2094,
      "Hernandez": 2095,
      "##dson": 2096,
      "##ina": 2097,
      "##iard": 2098,
      "Hilliard": 2099,
      "Giolit": 2100,
      "Giolito": 2101,
      "Chir": 2102,
      "Blan": 2103,
      "Jai": 2104,
      "Am": 2105,
      "Sab": 2106,
      "##ate": 2107,
      "Thaiss": 2108,
      "Barrero": 2109,
      "Brady": 2110,
      "Lynn": 2111,
      "Velázquez": 2112,
      "San": 2113,
      "Cobb": 2114,
      "Devin": 2115,
      "##edo": 2116,
      "Dunning": 2117,
      "##ple": 2118,
      "Davies": 2119,
      "Mac": 2120,
      "Hendrick": 2121,
      "Hudson": 2122,
      "Whe": 2123,
      "Wheeler": 2124,
      "Mej": 2125,
      "##imel": 2126,
      "Raimel": 2127,
      "Hum": 2128,
      "Joel": 2129,
      "##inos": 2130,
      "Doming": 2131,
      "##llo": 2132,
      "Buxton": 2133,
      "Byron": 2134,
      "Nar": 2135,
      "##aller": 2136,
      "Chirinos": 2137,
      "##erio": 2138,
      "Neto": 2139,
      "Waters": 2140,
      "##ju": 2141,
      "Ross": 2142,
      "Domingo": 2143,
      "##uw": 2144,
      "JJ": 2145,
      "Caballer": 2146,
      "Caballero": 2147,
      "Civ": 2148,
      "Civale": 2149,
      "##leson": 2150,
      "##wis": 2151,
      "Lewis": 2152,
      "Andruw": 2153,
      "Burleson": 2154,
      "Scho": 2155,
      "Yain": 2156,
      "Yainer": 2157,
      "Son": 2158,
      "##ul": 2159,
      "##we": 2160,
      "Sonny": 2161,
      "##bson": 2162,
      "##aud": 2163,
      "Gibson": 2164,
      "##ño": 2165,
      "2022": 2166,
      "10": 2167,
      "Jank": 2168,
      "Sim": 2169,
      "Haase": 2170,
      "Jankowski": 2171,
      "##vino": 2172,
      "Suarez": 2173,
      "McGui": 2174,
      "McGuire": 2175,
      "Bassitt": 2176,
      "Ovie": 2177,
      "##af": 2178,
      "Oviedo": 2179,
      "McKenzie": 2180,
      "Hendricks": 2181,
      "Myers": 2182,
      "Jaime": 2183,
      "Tou": 2184,
      "Ortiz": 2185,
      "Pol": 2186,
      "##tly": 2187,
      "##asterio": 2188,
      "Monasterio": 2189,
      "Partly": 2190,
      "Snell": 2191,
      "66": 2192,
      "Kut": 2193,
      "##zardo": 2194,
      "Kutter": 2195,
      "Agu": 2196,
      "Clayton": 2197,
      "##day": 2198,
      "Bleday": 2199,
      "Strider": 2200,
      "Ah": 2201,
      "##amber": 2202,
      "Short": 2203,
      "Sabol": 2204,
      "##plow": 2205,
      "Luplow": 2206,
      "##haw": 2207,
      "Kiri": 2208,
      "##lloff": 2209,
      "Kirilloff": 2210,
      "##burg": 2211,
      "Ran": 2212,
      "Bello": 2213,
      "Morton": 2214,
      "Arn": 2215,
      "##rove": 2216,
      "Arnaud": 2217,
      "Gregory": 2218,
      "##izner": 2219,
      "Knizner": 2220,
      "##um": 2221,
      "##grove": 2222,
      "Taillon": 2223,
      "Framber": 2224,
      "Nevin": 2225,
      "Ahmed": 2226,
      "Stall": 2227,
      "Stallings": 2228,
      "Frank": 2229,
      "##atini": 2230,
      "Caratini": 2231,
      "Tai": 2232,
      "Eri": 2233,
      "Gary": 2234,
      "Madison": 2235,
      "##sa": 2236,
      "##ilar": 2237,
      "MacK": 2238,
      "##gill": 2239,
      "Megill": 2240,
      "##wart": 2241,
      "Slater": 2242,
      "Fortes": 2243,
      "##juan": 2244,
      "Taijuan": 2245,
      "Ernie": 2246,
      "Yus": 2247,
      "Schoop": 2248,
      "Gelo": 2249,
      "Gelof": 2250,
      "Lugo": 2251,
      "Moran": 2252,
      "Stass": 2253,
      "Stassi": 2254,
      "##ilton": 2255,
      "Singer": 2256,
      "Richie": 2257,
      "Hamilton": 2258,
      "##zo": 2259,
      "Carter": 2260,
      "##eda": 2261,
      "##antara": 2262,
      "Alcantara": 2263,
      "Má": 2264,
      "Sy": 2265,
      "##rquez": 2266,
      "##inke": 2267,
      "##gaard": 2268,
      "Greinke": 2269,
      "##ndergaard": 2270,
      "Márquez": 2271,
      "Syndergaard": 2272,
      "Braxton": 2273,
      "Gonzales": 2274,
      "Robin": 2275,
      "Peter": 2276,
      "Houck": 2277,
      "Robinson": 2278,
      "Morgan": 2279,
      "Blanco": 2280,
      "Clement": 2281,
      "Roble": 2282,
      "Robles": 2283,
      "Schmidt": 2284,
      "##gl": 2285,
      "##mar": 2286,
      "##mitt": 2287,
      "##ioka": 2288,
      "Schmitt": 2289,
      "Fielders": 2290,
      "Choice": 2291,
      "Stewart": 2292,
      "Aguilar": 2293,
      "##rin": 2294,
      "Ba": 2295,
      "Higash": 2296,
      "Higashioka": 2297,
      "Chavis": 2298,
      "##lander": 2299,
      "Verlander": 2300,
      "Winker": 2301,
      "##cki": 2302,
      "Luzardo": 2303,
      "Clase": 2304,
      "##ita": 2305,
      "##ides": 2306,
      "Cro": 2307,
      "##well": 2308,
      "Bunt": 2309,
      "Barria": 2310,
      "Pollock": 2311,
      "Nate": 2312,
      "Kuhl": 2313,
      "Camp": 2314,
      "JP": 2315,
      "Sears": 2316,
      "##garner": 2317,
      "Bumgarner": 2318,
      "Julks": 2319,
      "Mitchell": 2320,
      "Ferm": 2321,
      "Zim": 2322,
      "Zimmer": 2323,
      "Ef": 2324,
      "Kop": 2325,
      "##ag": 2326,
      "Stra": 2327,
      "Cés": 2328,
      "##yce": 2329,
      "Josiah": 2330,
      "Lee": 2331,
      "Kers": 2332,
      "Kershaw": 2333,
      "##nh": 2334,
      "Sergio": 2335,
      "Grant": 2336,
      "##ston": 2337,
      "Mejía": 2338,
      "Westburg": 2339,
      "Hani": 2340,
      "Ott": 2341,
      "Dere": 2342,
      "##ctor": 2343,
      "##randa": 2344,
      "##dd": 2345,
      "Miranda": 2346,
      "Parker": 2347,
      "##att": 2348,
      "##antino": 2349,
      "##ua": 2350,
      "Zav": 2351,
      "##ub": 2352,
      "##aney": 2353,
      "Kik": 2354,
      "##uchi": 2355,
      "Yusei": 2356,
      "Kikuchi": 2357,
      "Colás": 2358,
      "Eflin": 2359,
      "Wald": 2360,
      "Sever": 2361,
      "Severino": 2362,
      "Joshua": 2363,
      "##get": 2364,
      "Jak": 2365,
      "Tray": 2366,
      "Dick": 2367,
      "Dickerson": 2368,
      "Ples": 2369,
      "Tu": 2370,
      "##pita": 2371,
      "Marcano": 2372,
      "##cupita": 2373,
      "Plesac": 2374,
      "Tucupita": 2375,
      "##ath": 2376,
      "Broo": 2377,
      "##ánt": 2378,
      "Alcánt": 2379,
      "Alcántara": 2380,
      "Gore": 2381,
      "Cave": 2382,
      "Hosmer": 2383,
      "Togl": 2384,
      "Toglia": 2385,
      "Heaney": 2386,
      "Manae": 2387,
      "Manaea": 2388,
      "Gord": 2389,
      "Gordon": 2390,
      "Pas": 2391,
      "##quantino": 2392,
      "Vinnie": 2393,
      "Pasquantino": 2394,
      "MacKenzie": 2395,
      "##oni": 2396,
      "Kole": 2397,
      "Merc": 2398,
      "##oah": 2399,
      "##ster": 2400,
      "Manoah": 2401,
      "Scher": 2402,
      "Brooks": 2403,
      "César": 2404,
      "##onel": 2405,
      "Peraza": 2406,
      "Scherzer": 2407,
      "##kman": 2408,
      "##ech": 2409,
      "Kopech": 2410,
      "Strahm": 2411,
      "##illy": 2412,
      "Kod": 2413,
      "Davidson": 2414,
      "Weaver": 2415,
      "Trayce": 2416,
      "Fl": 2417,
      "##phan": 2418,
      "Stephan": 2419,
      "Alexis": 2420,
      "##gins": 2421,
      "##vez": 2422,
      "##anks": 2423,
      "McCann": 2424,
      "Wallner": 2425,
      "##ckowski": 2426,
      "Winckowski": 2427,
      "Omar": 2428,
      "Ranger": 2429,
      "717": 2430,
      "Zavala": 2431,
      "Na": 2432,
      "Hel": 2433,
      "Elder": 2434,
      "Chang": 2435,
      "Lambert": 2436,
      "Trevino": 2437,
      "Narv": 2438,
      "##ahan": 2439,
      "##ález": 2440,
      "##iter": 2441,
      "Leiter": 2442,
      "González": 2443,
      "Haniger": 2444,
      "##bu": 2445,
      "##ahert": 2446,
      "Flahert": 2447,
      "Flaherty": 2448,
      "Wain": 2449,
      "##wright": 2450,
      "##ffman": 2451,
      "Wainwright": 2452,
      "##ows": 2453,
      "Meadows": 2454,
      "Kody": 2455,
      "Bauers": 2456,
      "Hummel": 2457,
      "Billy": 2458,
      "Ramos": 2459,
      "Aqu": 2460,
      "Abb": 2461,
      "Sen": 2462,
      "Aquino": 2463,
      "Abbott": 2464,
      "Brock": 2465,
      "Seby": 2466,
      "Arist": 2467,
      "##ns": 2468,
      "##naci": 2469,
      "##xen": 2470,
      "##carnaci": 2471,
      "Encarnaci": 2472,
      "Flexen": 2473,
      "Aristides": 2474,
      "Encarnacion": 2475,
      "Bard": 2476,
      "Winn": 2477,
      "Pl": 2478,
      "##irez": 2479,
      "Ramirez": 2480,
      "Hayden": 2481,
      "##quin": 2482,
      "McClan": 2483,
      "McClanahan": 2484,
      "##sley": 2485,
      "Higgins": 2486,
      "Dozier": 2487,
      "##évez": 2488,
      "Estévez": 2489,
      "Hans": 2490,
      "Larn": 2491,
      "Pedro": 2492,
      "Naquin": 2493,
      "Larnach": 2494,
      "Collin": 2495,
      "Guill": 2496,
      "##vi": 2497,
      "##lu": 2498,
      "##ista": 2499,
      "Clev": 2500,
      "Jakob": 2501,
      "Clevinger": 2502,
      "Matos": 2503,
      "Pillar": 2504,
      "##ney": 2505,
      "##ndy": 2506,
      "##ind": 2507,
      "Grayson": 2508,
      "Hop": 2509,
      "##gos": 2510,
      "Derek": 2511,
      "Herget": 2512,
      "Bir": 2513,
      "Yonny": 2514,
      "Kodai": 2515,
      "Senga": 2516,
      "##dolo": 2517,
      "##ix": 2518,
      "Lodolo": 2519,
      "Bird": 2520,
      "Eny": 2521,
      "##ante": 2522,
      "Enyel": 2523,
      "##vey": 2524,
      "Arm": 2525,
      "Tristan": 2526,
      "Whitlock": 2527,
      "Cionel": 2528,
      "##asier": 2529,
      "##ilo": 2530,
      "Wes": 2531,
      "##rie": 2532,
      "Felt": 2533,
      "##ora": 2534,
      "Ga": 2535,
      "Pach": 2536,
      "Mercado": 2537,
      "Pache": 2538,
      "##ink": 2539,
      "Brasier": 2540,
      "Miley": 2541,
      "Cra": 2542,
      "Craig": 2543,
      "Mil": 2544,
      "Diego": 2545,
      "##asquez": 2546,
      "##ane": 2547,
      "Schre": 2548,
      "Strat": 2549,
      "More": 2550,
      "Loup": 2551,
      "JT": 2552,
      "Bern": 2553,
      "##olin": 2554,
      "Erik": 2555,
      "Po": 2556,
      "Buck": 2557,
      "Barl": 2558,
      "Schwind": 2559,
      "Barlow": 2560,
      "Schwindel": 2561,
      "Serven": 2562,
      "Stratton": 2563,
      "Narváez": 2564,
      "But": 2565,
      "Voit": 2566,
      "##tges": 2567,
      "##iber": 2568,
      "Hentges": 2569,
      "Schreiber": 2570,
      "Ass": 2571,
      "Azo": 2572,
      "Edwin": 2573,
      "Gons": 2574,
      "Assad": 2575,
      "Azocar": 2576,
      "Houser": 2577,
      "Ober": 2578,
      "Bryse": 2579,
      "##uff": 2580,
      "Hi": 2581,
      "Delay": 2582,
      "##ion": 2583,
      "Batten": 2584,
      "##hle": 2585,
      "Mahle": 2586,
      "Ter": 2587,
      "Blackbur": 2588,
      "Blackburn": 2589,
      "##pling": 2590,
      "Stripling": 2591,
      "##vish": 2592,
      "Darvish": 2593,
      "Sk": 2594,
      "##oss": 2595,
      "Royce": 2596,
      "Blach": 2597,
      "Fé": 2598,
      "##ior": 2599,
      "##lix": 2600,
      "Félix": 2601,
      "Sandlin": 2602,
      "Ces": 2603,
      "Klu": 2604,
      "##cl": 2605,
      "Kluber": 2606,
      "##arland": 2607,
      "##utista": 2608,
      "##ider": 2609,
      "Bautista": 2610,
      "##ty": 2611,
      "##gerty": 2612,
      "Dak": 2613,
      "##ota": 2614,
      "##iot": 2615,
      "Dakota": 2616,
      "Ves": 2617,
      "Hoffman": 2618,
      "Quint": 2619,
      "718": 2620,
      "Quintana": 2621,
      "Ray": 2622,
      "Fry": 2623,
      "Oswald": 2624,
      "##elick": 2625,
      "Frelick": 2626,
      "Fo": 2627,
      "Gonsolin": 2628,
      "Gut": 2629,
      "Mus": 2630,
      "Mant": 2631,
      "##iply": 2632,
      "Musgrove": 2633,
      "Mantiply": 2634,
      "Med": 2635,
      "##ps": 2636,
      "Ós": 2637,
      "Óscar": 2638,
      "Cap": 2639,
      "##aya": 2640,
      "Diekman": 2641,
      "##orme": 2642,
      "Alberto": 2643,
      "Junis": 2644,
      "Guillorme": 2645,
      "Ure": 2646,
      "Giba": 2647,
      "Triolo": 2648,
      "Ureña": 2649,
      "Gibaut": 2650,
      "Tylor": 2651,
      "##aton": 2652,
      "Cade": 2653,
      "##bo": 2654,
      "Vien": 2655,
      "##tos": 2656,
      "Bart": 2657,
      "Feltner": 2658,
      "Vientos": 2659,
      "Barnh": 2660,
      "Barnhart": 2661,
      "Stef": 2662,
      "Voth": 2663,
      "Dillon": 2664,
      "Ye": 2665,
      "Abra": 2666,
      "War": 2667,
      "Marco": 2668,
      "Clemens": 2669,
      "Stefan": 2670,
      "Rucker": 2671,
      "Tay": 2672,
      "##strong": 2673,
      "Armstrong": 2674,
      "Fermin": 2675,
      "Willie": 2676,
      "##ichuk": 2677,
      "Wallach": 2678,
      "Waldichuk": 2679,
      "##oan": 2680,
      "Strand": 2681,
      "Richards": 2682,
      "##mora": 2683,
      "Almora": 2684,
      "Rem": 2685,
      "##bbs": 2686,
      "Jh": 2687,
      "Enmanuel": 2688,
      "Lio": 2689,
      "##ress": 2690,
      "Liover": 2691,
      "##illard": 2692,
      "Remillard": 2693,
      "One": 2694,
      "Clear": 2695,
      "Gink": 2696,
      "##ruff": 2697,
      "##ido": 2698,
      "Woodruff": 2699,
      "Stubbs": 2700,
      "Ginkel": 2701,
      "Hall": 2702,
      "Bi": 2703,
      "##neski": 2704,
      "Wesneski": 2705,
      "Oneil": 2706,
      "Holmes": 2707,
      "Abraham": 2708,
      "##men": 2709,
      "##met": 2710,
      "##asco": 2711,
      "Williamson": 2712,
      "Edwards": 2713,
      "Wy": 2714,
      "##idy": 2715,
      "##zone": 2716,
      "Julian": 2717,
      "Canning": 2718,
      "Canzone": 2719,
      "Mul": 2720,
      "##sen": 2721,
      "Litt": 2722,
      "##ínez": 2723,
      "##chak": 2724,
      "Martínez": 2725,
      "Cou": 2726,
      "Wynn": 2727,
      "##inn": 2728,
      "Akin": 2729,
      "Wynns": 2730,
      "##argo": 2731,
      "Perkins": 2732,
      "Alejo": 2733,
      "Pay": 2734,
      "Vav": 2735,
      "Terrin": 2736,
      "Vavra": 2737,
      "Baumann": 2738,
      "05": 2739,
      "08": 2740,
      "Gl": 2741,
      "##itz": 2742,
      "Almon": 2743,
      "Almonte": 2744,
      "Nor": 2745,
      "Matz": 2746,
      "##bee": 2747,
      "Bernard": 2748,
      "Ronny": 2749,
      "##land": 2750,
      "##yer": 2751,
      "##antz": 2752,
      "Brito": 2753,
      "Dair": 2754,
      "Jax": 2755,
      "Carrasco": 2756,
      "Cessa": 2757,
      "Dairon": 2758,
      "##isel": 2759,
      "Dau": 2760,
      "04": 2761,
      "Ner": 2762,
      "Went": 2763,
      "Dauri": 2764,
      "Wentz": 2765,
      "09": 2766,
      "Pall": 2767,
      "Mag": 2768,
      "Pfa": 2769,
      "##adt": 2770,
      "Pfaadt": 2771,
      "Emil": 2772,
      "Holl": 2773,
      "##idal": 2774,
      "Pallante": 2775,
      "Intent": 2776,
      "Seab": 2777,
      "Seabold": 2778,
      "##ys": 2779,
      "Hag": 2780,
      "Medina": 2781,
      "##wood": 2782,
      "##quidy": 2783,
      "Urquidy": 2784,
      "Bibee": 2785,
      "Lauer": 2786,
      "Ell": 2787,
      "Sil": 2788,
      "Raisel": 2789,
      "Anton": 2790,
      "##gans": 2791,
      "Spenser": 2792,
      "Domín": 2793,
      "Domínguez": 2794,
      "Ve": 2795,
      "Mast": 2796,
      "##robu": 2797,
      "Mastrobu": 2798,
      "Mastrobuoni": 2799,
      "Len": 2800,
      "Pag": 2801,
      "Haggerty": 2802,
      "Lenyn": 2803,
      "Rea": 2804,
      "##cher": 2805,
      "Hanser": 2806,
      "Foley": 2807,
      "Sut": 2808,
      "Suter": 2809,
      "Cortes": 2810,
      "##ecki": 2811,
      "##now": 2812,
      "##asnow": 2813,
      "##awecki": 2814,
      "Plawecki": 2815,
      "Glasnow": 2816,
      "##che": 2817,
      "Watkins": 2818,
      "Kimbr": 2819,
      "Stefanic": 2820,
      "Kimbrel": 2821,
      "12": 2822,
      "Dix": 2823,
      "Ful": 2824,
      "Qui": 2825,
      "Curry": 2826,
      "Dixon": 2827,
      "Xz": 2828,
      "##avion": 2829,
      "Moreta": 2830,
      "Xzavion": 2831,
      "Holton": 2832,
      "##eyton": 2833,
      "DeS": 2834,
      "Clint": 2835,
      "Tayler": 2836,
      "##ok": 2837,
      "Kar": 2838,
      "Yar": 2839,
      "Kend": 2840,
      "Long": 2841,
      "Sale": 2842,
      "Wisely": 2843,
      "Kendall": 2844,
      "Avis": 2845,
      "##aí": 2846,
      "Avisaí": 2847,
      "Avisaíl": 2848,
      "06": 2849,
      "Grater": 2850,
      "Jay": 2851,
      "Gamel": 2852,
      "Graterol": 2853,
      "##owers": 2854,
      "##alla": 2855,
      "Hoppe": 2856,
      "Antonio": 2857,
      "Vidal": 2858,
      "Stowers": 2859,
      "Bruj": 2860,
      "##brough": 2861,
      "Yarbrough": 2862,
      "Bruján": 2863,
      "##usano": 2864,
      "Campusano": 2865,
      "##boom": 2866,
      "##ine": 2867,
      "##nton": 2868,
      "Lux": 2869,
      "Stad": 2870,
      "##ddy": 2871,
      "##ium": 2872,
      "Stadium": 2873,
      "##osse": 2874,
      "Fergu": 2875,
      "Shawn": 2876,
      "Burke": 2877,
      "Hold": 2878,
      "Tar": 2879,
      "Holder": 2880,
      "##fe": 2881,
      "07": 2882,
      "Varland": 2883,
      "Yim": 2884,
      "##stor": 2885,
      "Rodón": 2886,
      "Nestor": 2887,
      "Yimi": 2888,
      "Brosse": 2889,
      "##edn": 2890,
      "Brosseau": 2891,
      "Romy": 2892,
      "##afani": 2893,
      "##clafani": 2894,
      "DeSclafani": 2895,
      "Galla": 2896,
      "##gher": 2897,
      "Gallagher": 2898,
      "Kap": 2899,
      "Ragans": 2900,
      "Muller": 2901,
      "León": 2902,
      "Emilio": 2903,
      "Reynaldo": 2904,
      "Masyn": 2905,
      "##con": 2906,
      "Hé": 2907,
      "Sul": 2908,
      "Buddy": 2909,
      "Héctor": 2910,
      "Key": 2911,
      "Maeda": 2912,
      "Kenta": 2913,
      "Wright": 2914,
      "Chav": 2915,
      "McKinney": 2916,
      "##inam": 2917,
      "##riano": 2918,
      "Soriano": 2919,
      "##alter": 2920,
      "Rei": 2921,
      "Warren": 2922,
      "Doval": 2923,
      "Beck": 2924,
      "Camilo": 2925,
      "Cris": 2926,
      "##amps": 2927,
      "Hoby": 2928,
      "Milner": 2929,
      "Bedn": 2930,
      "Grav": 2931,
      "Neris": 2932,
      "Bednar": 2933,
      "Graveman": 2934,
      "Wantz": 2935,
      "Jhoan": 2936,
      "##ali": 2937,
      "Curtis": 2938,
      "Amaya": 2939,
      "Pagán": 2940,
      "Cristopher": 2941,
      "Mel": 2942,
      "Kuhn": 2943,
      "##isner": 2944,
      "##strom": 2945,
      "716": 2946,
      "Chavez": 2947,
      "Hand": 2948,
      "##wald": 2949,
      "##berat": 2950,
      "Sewald": 2951,
      "Liberat": 2952,
      "##dar": 2953,
      "Romano": 2954,
      "Ferguson": 2955,
      "Bow": 2956,
      "Over": 2957,
      "##rielian": 2958,
      "Casali": 2959,
      "Kaprielian": 2960,
      "Endy": 2961,
      "Sampson": 2962,
      "Littell": 2963,
      "##ius": 2964,
      "Colton": 2965,
      "Alu": 2966,
      "Payamps": 2967,
      "Math": 2968,
      "Peyton": 2969,
      "Fin": 2970,
      "Falter": 2971,
      "Fuj": 2972,
      "Shint": 2973,
      "Pinto": 2974,
      "##inami": 2975,
      "Fujinami": 2976,
      "Shintaro": 2977,
      "##oldis": 2978,
      "Aroldis": 2979,
      "03": 2980,
      "##negan": 2981,
      "Poche": 2982,
      "Finnegan": 2983,
      "Rh": 2984,
      "Lange": 2985,
      "Beau": 2986,
      "Brus": 2987,
      "Brusdar": 2988,
      "Darin": 2989,
      "##atela": 2990,
      "Senzatela": 2991,
      "Roans": 2992,
      "Roansy": 2993,
      "Sun": 2994,
      "Sunny": 2995,
      "Conner": 2996,
      "##aint": 2997,
      "##ssaint": 2998,
      "Touki": 2999,
      "Toussaint": 3000,
      "Bride": 3001,
      "Wandy": 3002,
      "##kin": 3003,
      "Noel": 3004,
      "Zun": 3005,
      "Zunino": 3006,
      "##inchak": 3007,
      "Karinchak": 3008,
      "Brash": 3009,
      "##eto": 3010,
      "Ara": 3011,
      "##úz": 3012,
      "Araúz": 3013,
      "IV": 3014,
      "Lyn": 3015,
      "Lynch": 3016,
      "Bick": 3017,
      "Jesus": 3018,
      "Bickford": 3019,
      "Fulmer": 3020,
      "##don": 3021,
      "##neuris": 3022,
      "Mayers": 3023,
      "Ruf": 3024,
      "##ather": 3025,
      "Yad": 3026,
      "Bus": 3027,
      "Alfaro": 3028,
      "Johnny": 3029,
      "Press": 3030,
      "Pressly": 3031,
      "Moll": 3032,
      "##rywe": 3033,
      "Schne": 3034,
      "Merrywe": 3035,
      "Muño": 3036,
      "Merryweather": 3037,
      "Muñoz": 3038,
      "Bru": 3039,
      "Kuhnel": 3040,
      "##ming": 3041,
      "##mart": 3042,
      "##bba": 3043,
      "Manning": 3044,
      "Bubba": 3045,
      "Sanmart": 3046,
      "Zimmermann": 3047,
      "Reiver": 3048,
      "Bruce": 3049,
      "Sanmartin": 3050,
      "Taj": 3051,
      "Cuas": 3052,
      "Gott": 3053,
      "##cler": 3054,
      "Lecler": 3055,
      "Leclerc": 3056,
      "##ías": 3057,
      "Cueto": 3058,
      "Brant": 3059,
      "Puk": 3060,
      "##nick": 3061,
      "Shel": 3062,
      "Teper": 3063,
      "Tepera": 3064,
      "Minter": 3065,
      "Sanchez": 3066,
      "Owings": 3067,
      "Pier": 3068,
      "Scholten": 3069,
      "Scholtens": 3070,
      "Had": 3071,
      "Anduj": 3072,
      "Hader": 3073,
      "Andujar": 3074,
      "Eaton": 3075,
      "##leton": 3076,
      "Midd": 3077,
      "##urt": 3078,
      "Minor": 3079,
      "Keynan": 3080,
      "Middleton": 3081,
      "Cow": 3082,
      "Coul": 3083,
      "Gé": 3084,
      "##nesis": 3085,
      "Génesis": 3086,
      "Saw": 3087,
      "Chaf": 3088,
      "Chafin": 3089,
      "Dalton": 3090,
      "Gilberto": 3091,
      "Lamb": 3092,
      "##com": 3093,
      "##yd": 3094,
      "Oliver": 3095,
      "Bote": 3096,
      "##legos": 3097,
      "##isnick": 3098,
      "##add": 3099,
      "Marisnick": 3100,
      "##vanny": 3101,
      "Gallegos": 3102,
      "Giovanny": 3103,
      "##ubal": 3104,
      "Fa": 3105,
      "Pierce": 3106,
      "Cano": 3107,
      "Tonkin": 3108,
      "Skubal": 3109,
      "Tarik": 3110,
      "Banks": 3111,
      "McH": 3112,
      "Hoskins": 3113,
      "Rhys": 3114,
      "Jhony": 3115,
      "##biel": 3116,
      "##ckland": 3117,
      "Strickland": 3118,
      "##ove": 3119,
      "##ington": 3120,
      "Hugh": 3121,
      "Liv": 3122,
      "Butler": 3123,
      "Hughes": 3124,
      "Eury": 3125,
      "Aranda": 3126,
      "##ugh": 3127,
      "Hensley": 3128,
      "McHugh": 3129,
      "Paxton": 3130,
      "Kurt": 3131,
      "Wick": 3132,
      "Rowan": 3133,
      "##ika": 3134,
      "Mott": 3135,
      "Motter": 3136,
      "Yenn": 3137,
      "##seth": 3138,
      "Silseth": 3139,
      "Yennier": 3140,
      "##amis": 3141,
      "Aramis": 3142,
      "Bummer": 3143,
      "Lively": 3144,
      "Sier": 3145,
      "##zol": 3146,
      "Alzol": 3147,
      "Adbert": 3148,
      "Beer": 3149,
      "Weiss": 3150,
      "Magneuris": 3151,
      "Sierra": 3152,
      "Alzolay": 3153,
      "Mend": 3154,
      "Cisner": 3155,
      "Cisnero": 3156,
      "DeL": 3157,
      "##asmo": 3158,
      "##avino": 3159,
      "Erasmo": 3160,
      "Ottavino": 3161,
      "Hager": 3162,
      "Caugh": 3163,
      "##bor": 3164,
      "##aling": 3165,
      "Stealing": 3166,
      "Caught": 3167,
      "##oney": 3168,
      "##ila": 3169,
      "Mayza": 3170,
      "Rome": 3171,
      "Leury": 3172,
      "Coll": 3173,
      "Quinn": 3174,
      "Romero": 3175,
      "Locast": 3176,
      "René": 3177,
      "Locastro": 3178,
      "Sims": 3179,
      "Capel": 3180,
      "##ates": 3181,
      "Boyd": 3182,
      "Schneider": 3183,
      "Grove": 3184,
      "Leone": 3185,
      "Flor": 3186,
      "Sbor": 3187,
      "Floro": 3188,
      "Sborz": 3189,
      "##hbiel": 3190,
      "Gabe": 3191,
      "Krehbiel": 3192,
      "Noelvi": 3193,
      "Spe": 3194,
      "Pinder": 3195,
      "Otto": 3196,
      "Good": 3197,
      "Tate": 3198,
      "Vesia": 3199,
      "Ok": 3200,
      "Okert": 3201,
      "Top": 3202,
      "##ascar": 3203,
      "Huascar": 3204,
      "Bee": 3205,
      "McGough": 3206,
      "Yun": 3207,
      "##omar": 3208,
      "Yunior": 3209,
      "Kaleb": 3210,
      "##derstrom": 3211,
      "Soderstrom": 3212,
      "Vos": 3213,
      "Harvey": 3214,
      "Vosler": 3215,
      "Topa": 3216,
      "Stane": 3217,
      "Stanek": 3218,
      "##anthony": 3219,
      "Seranthony": 3220,
      "##dan": 3221,
      "Yepez": 3222,
      "Collins": 3223,
      "Biel": 3224,
      "Bielak": 3225,
      "Rí": 3226,
      "Fleming": 3227,
      "Ríos": 3228,
      "##osed": 3229,
      "Closed": 3230,
      "Roof": 3231,
      "Speier": 3232,
      "Bou": 3233,
      "##jada": 3234,
      "Mendick": 3235,
      "##berg": 3236,
      "Busch": 3237,
      "Cele": 3238,
      "##agen": 3239,
      "##Hagen": 3240,
      "##stino": 3241,
      "VerHagen": 3242,
      "##ancon": 3243,
      "Melancon": 3244,
      "Holderman": 3245,
      "##vila": 3246,
      "Adon": 3247,
      "Faedo": 3248,
      "Drey": 3249,
      "Dustin": 3250,
      "Kenley": 3251,
      "Cowser": 3252,
      "Gris": 3253,
      "Woo": 3254,
      "##eing": 3255,
      "##som": 3256,
      "Hoeing": 3257,
      "Grissom": 3258,
      "Engel": 3259,
      "Yates": 3260,
      "Mathias": 3261,
      "Honey": 3262,
      "Toro": 3263,
      "Woodford": 3264,
      "Honeywell": 3265,
      "##bre": 3266,
      "Celestino": 3267,
      "Ras": 3268,
      "Adrián": 3269,
      "IN": 3270,
      "##owell": 3271,
      "INFIELD": 3272,
      "Mol": 3273,
      "Yol": 3274,
      "Jalen": 3275,
      "Singleton": 3276,
      "15": 3277,
      "Dall": 3278,
      "Eng": 3279,
      "Keuch": 3280,
      "Beeks": 3281,
      "Dallas": 3282,
      "Keuchel": 3283,
      "Quijada": 3284,
      "##mus": 3285,
      "##ucki": 3286,
      "Rasmus": 3287,
      "Rasmussen": 3288,
      "Frías": 3289,
      "Ker": 3290,
      "##asley": 3291,
      "Marin": 3292,
      "Keston": 3293,
      "Hiura": 3294,
      "Ellis": 3295,
      "Brebb": 3296,
      "Brebbia": 3297,
      "Alvarado": 3298,
      "##ombe": 3299,
      "##acc": 3300,
      "Vest": 3301,
      "Coulombe": 3302,
      "Vasquez": 3303,
      "##aty": 3304,
      "Thor": 3305,
      "Beaty": 3306,
      "Montes": 3307,
      "##comb": 3308,
      "Ry": 3309,
      "Chac": 3310,
      "##omé": 3311,
      "Colomé": 3312,
      "##ms": 3313,
      "##cch": 3314,
      "Braz": 3315,
      "Rocch": 3316,
      "##obán": 3317,
      "Brazobán": 3318,
      "Rocchio": 3319,
      "Joan": 3320,
      "##heran": 3321,
      "Teheran": 3322,
      "Bas": 3323,
      "##abe": 3324,
      "Liberatore": 3325,
      "Basabe": 3326,
      "Louie": 3327,
      "663": 3328,
      "Van": 3329,
      "Brantley": 3330,
      "##amer": 3331,
      "Shu": 3332,
      "Reed": 3333,
      "##ameron": 3334,
      "Sor": 3335,
      "Espino": 3336,
      "Yen": 3337,
      "Livan": 3338,
      "##berger": 3339,
      "Cos": 3340,
      "Jer": 3341,
      "Nomar": 3342,
      "Mazar": 3343,
      "Romine": 3344,
      "Mazara": 3345,
      "Nard": 3346,
      "Nardi": 3347,
      "Avila": 3348,
      "Marinacc": 3349,
      "Yency": 3350,
      "Marinaccio": 3351,
      "Sw": 3352,
      "##cedo": 3353,
      "##iño": 3354,
      "##chard": 3355,
      "Bouchard": 3356,
      "Kon": 3357,
      "##banks": 3358,
      "Tomás": 3359,
      "Fairbanks": 3360,
      "Nik": 3361,
      "##mos": 3362,
      "Hermos": 3363,
      "Vince": 3364,
      "Niko": 3365,
      "Hermosillo": 3366,
      "Coleman": 3367,
      "Bol": 3368,
      "##vani": 3369,
      "Jovani": 3370,
      "##berto": 3371,
      "##ems": 3372,
      "##ineman": 3373,
      "Heineman": 3374,
      "Weems": 3375,
      "Marl": 3376,
      "Rafaela": 3377,
      "Mervis": 3378,
      "Jeffrey": 3379,
      "Ceddan": 3380,
      "Ceddanne": 3381,
      "##ca": 3382,
      "Sau": 3383,
      "Weath": 3384,
      "Marlowe": 3385,
      "Weathers": 3386,
      "Nu": 3387,
      "Nuñez": 3388,
      "##lert": 3389,
      "##ahn": 3390,
      "Velasquez": 3391,
      "Englert": 3392,
      "Nido": 3393,
      "##rial": 3394,
      "Ethan": 3395,
      "##ceg": 3396,
      "Hogan": 3397,
      "Erceg": 3398,
      "##verson": 3399,
      "Pil": 3400,
      "##kington": 3401,
      "Brub": 3402,
      "Konnor": 3403,
      "Pilkington": 3404,
      "Brubaker": 3405,
      "##bar": 3406,
      "Oslei": 3407,
      "Norris": 3408,
      "Yolmer": 3409,
      "Osleivis": 3410,
      "Alika": 3411,
      "Deven": 3412,
      "Molina": 3413,
      "Devenski": 3414,
      "Din": 3415,
      "##livan": 3416,
      "Lamet": 3417,
      "Dinelson": 3418,
      "##berson": 3419,
      "Bradford": 3420,
      "Yohan": 3421,
      "Yerry": 3422,
      "##amil": 3423,
      "Bli": 3424,
      "Madris": 3425,
      "Estevan": 3426,
      "Florial": 3427,
      "Bligh": 3428,
      "Fel": 3429,
      "Kau": 3430,
      "##ielbar": 3431,
      "Thielbar": 3432,
      "##anuel": 3433,
      "##iano": 3434,
      "##ella": 3435,
      "Schanuel": 3436,
      "Lorenzo": 3437,
      "Sullivan": 3438,
      "##reve": 3439,
      "Shreve": 3440,
      "##vens": 3441,
      "Chasen": 3442,
      "Dun": 3443,
      "Famil": 3444,
      "##ér": 3445,
      "##gren": 3446,
      "##mons": 3447,
      "##uitt": 3448,
      "Braden": 3449,
      "Pruitt": 3450,
      "Saucedo": 3451,
      "Samad": 3452,
      "Guz": 3453,
      "Luken": 3454,
      "##nel": 3455,
      "Ronel": 3456,
      "Mis": 3457,
      "Helsley": 3458,
      "##lecki": 3459,
      "##zelecki": 3460,
      "Strzelecki": 3461,
      "Cul": 3462,
      "Xav": 3463,
      "Heasley": 3464,
      "Winder": 3465,
      "Springs": 3466,
      "Xavier": 3467,
      "##azu": 3468,
      "Down": 3469,
      "##fee": 3470,
      "Lav": 3471,
      "Perei": 3472,
      "Jeter": 3473,
      "Bernardino": 3474,
      "Downs": 3475,
      "Pereira": 3476,
      "##arson": 3477,
      "Chargo": 3478,
      "Pearson": 3479,
      "Chargois": 3480,
      "##piot": 3481,
      "##chal": 3482,
      "Pepiot": 3483,
      "Givens": 3484,
      "Darick": 3485,
      "Mychal": 3486,
      "##lys": 3487,
      "109": 3488,
      "Jhou": 3489,
      "Prie": 3490,
      "##kazu": 3491,
      "##amura": 3492,
      "##rokazu": 3493,
      "Hirokazu": 3494,
      "Sawamura": 3495,
      "Chacín": 3496,
      "Jhoulys": 3497,
      "Wyatt": 3498,
      "Fitz": 3499,
      "Jhon": 3500,
      "##eter": 3501,
      "##Meter": 3502,
      "##eske": 3503,
      "Brieske": 3504,
      "Sands": 3505,
      "VanMeter": 3506,
      "Bor": 3507,
      "##gerald": 3508,
      "Fitzgerald": 3509,
      "Borucki": 3510,
      "Kes": 3511,
      "Noé": 3512,
      "Pap": 3513,
      "##elle": 3514,
      "Art": 3515,
      "Burd": 3516,
      "Kenny": 3517,
      "Jord": 3518,
      "Stella": 3519,
      "Loft": 3520,
      "Bowden": 3521,
      "Loftin": 3522,
      "##off": 3523,
      "Coco": 3524,
      "Gadd": 3525,
      "Mayfield": 3526,
      "Gaddis": 3527,
      "Overton": 3528,
      "Hendri": 3529,
      "Danish": 3530,
      "Eff": 3531,
      "##ross": 3532,
      "114": 3533,
      "Effross": 3534,
      "Patiño": 3535,
      "##mboom": 3536,
      "##xberger": 3537,
      "Boxberger": 3538,
      "Eddy": 3539,
      "Bemboom": 3540,
      "719": 3541,
      "Everson": 3542,
      "##singer": 3543,
      "108": 3544,
      "Glen": 3545,
      "Hy": 3546,
      "Jin": 3547,
      "Head": 3548,
      "Ryu": 3549,
      "Glenn": 3550,
      "Hyun": 3551,
      "113": 3552,
      "Shuster": 3553,
      "Kol": 3554,
      "##lick": 3555,
      "##enberg": 3556,
      "McA": 3557,
      "Garlick": 3558,
      "111": 3559,
      "112": 3560,
      "Hart": 3561,
      "110": 3562,
      "Erick": 3563,
      "##lar": 3564,
      "72": 3565,
      "##ek": 3566,
      "Roberto": 3567,
      "##aine": 3568,
      "Simmons": 3569,
      "Cosgrove": 3570,
      "Cim": 3571,
      "##elton": 3572,
      "Andrelton": 3573,
      "Korey": 3574,
      "Cimber": 3575,
      "##alen": 3576,
      "##valdo": 3577,
      "Cory": 3578,
      "Dug": 3579,
      "Hase": 3580,
      "Osvaldo": 3581,
      "115": 3582,
      "Haseley": 3583,
      "Covey": 3584,
      "##iani": 3585,
      "##ierski": 3586,
      "Papierski": 3587,
      "##mell": 3588,
      "Lukes": 3589,
      "Camargo": 3590,
      "Under": 3591,
      "Duane": 3592,
      "Underwood": 3593,
      "Mois": 3594,
      "Baz": 3595,
      "##rio": 3596,
      "Gilbre": 3597,
      "Gilbreath": 3598,
      "Hor": 3599,
      "##ken": 3600,
      "##rys": 3601,
      "Shelby": 3602,
      "Cabba": 3603,
      "Wittgren": 3604,
      "Cabbage": 3605,
      "Lip": 3606,
      "##iga": 3607,
      "Grae": 3608,
      "Wynton": 3609,
      "Bido": 3610,
      "Cameron": 3611,
      "##idler": 3612,
      "Kreidler": 3613,
      "Go": 3614,
      "##ammell": 3615,
      "Trammell": 3616,
      "##urys": 3617,
      "##gham": 3618,
      "Brigham": 3619,
      "Ky": 3620,
      "Llo": 3621,
      "##ingham": 3622,
      "Jong": 3623,
      "Culberson": 3624,
      "Kessinger": 3625,
      "Llovera": 3626,
      "Thornton": 3627,
      "Smel": 3628,
      "##rens": 3629,
      "##azar": 3630,
      "Barrera": 3631,
      "Torrens": 3632,
      "Puj": 3633,
      "##ols": 3634,
      "661": 3635,
      "Pujols": 3636,
      "Rosenberg": 3637,
      "Crowe": 3638,
      "##ehan": 3639,
      "##arte": 3640,
      "##adde": 3641,
      "##cock": 3642,
      "Thadde": 3643,
      "Emmet": 3644,
      "Sheehan": 3645,
      "Thaddeus": 3646,
      "Stevenson": 3647,
      "Amir": 3648,
      "Jordyn": 3649,
      "Huff": 3650,
      "Koch": 3651,
      "Kow": 3652,
      "##Jo": 3653,
      "JoJo": 3654,
      "Oller": 3655,
      "662": 3656,
      "Kowar": 3657,
      "Karl": 3658,
      "Hj": 3659,
      "##tzer": 3660,
      "Butt": 3661,
      "Smeltzer": 3662,
      "Kin": 3663,
      "de": 3664,
      "##fer": 3665,
      "Criswell": 3666,
      "Ts": 3667,
      "##eny": 3668,
      "Ame": 3669,
      "Stau": 3670,
      "##ierrez": 3671,
      "Calvin": 3672,
      "Gutierrez": 3673,
      "Americ": 3674,
      "Duarte": 3675,
      "Kahn": 3676,
      "Allan": 3677,
      "Kahnle": 3678,
      "Brew": 3679,
      "##bic": 3680,
      "Bubic": 3681,
      "Brewer": 3682,
      "Pad": 3683,
      "##pi": 3684,
      "Dany": 3685,
      "Vespi": 3686,
      "Hat": 3687,
      "Nab": 3688,
      "Pa": 3689,
      "##matt": 3690,
      "##pa": 3691,
      "Cox": 3692,
      "##utsugo": 3693,
      "Yoshi": 3694,
      "Crismatt": 3695,
      "Tsutsugo": 3696,
      "Nabil": 3697,
      "Rut": 3698,
      "Snider": 3699,
      "##sey": 3700,
      "##rest": 3701,
      "Forrest": 3702,
      "Priester": 3703,
      "Kinley": 3704,
      "Bann": 3705,
      "Kie": 3706,
      "Wilyer": 3707,
      "Junior": 3708,
      "Kieboom": 3709,
      "##ray": 3710,
      "Fernandez": 3711,
      "Fed": 3712,
      "Roberts": 3713,
      "Heliot": 3714,
      "Goodman": 3715,
      "Hatch": 3716,
      "Gill": 3717,
      "Luet": 3718,
      "Luetge": 3719,
      "Bellatt": 3720,
      "Guerra": 3721,
      "American": 3722,
      "Bellatti": 3723,
      "Penn": 3724,
      "Vinny": 3725,
      "Fermín": 3726,
      "Hjelle": 3727,
      "##gdon": 3728,
      "##arty": 3729,
      "Duggar": 3730,
      "Jarvis": 3731,
      "Salazar": 3732,
      "Brogdon": 3733,
      "Cana": 3734,
      "Nj": 3735,
      "##igba": 3736,
      "##mont": 3737,
      "Lopes": 3738,
      "Canaan": 3739,
      "Njigba": 3740,
      "Zer": 3741,
      "##hi": 3742,
      "##áis": 3743,
      "##ffmann": 3744,
      "Loáis": 3745,
      "Zerpa": 3746,
      "Loáisiga": 3747,
      "Jan": 3748,
      "Humberto": 3749,
      "Yadiel": 3750,
      "Mills": 3751,
      "Hollowell": 3752,
      "Kauffmann": 3753,
      "Pri": 3754,
      "##hrie": 3755,
      "##ved": 3756,
      "Camden": 3757,
      "Newcomb": 3758,
      "Guthrie": 3759,
      "Staumont": 3760,
      "Fos": 3761,
      "##omon": 3762,
      "Solomon": 3763,
      "Yadier": 3764,
      "Martini": 3765,
      "Nav": 3766,
      "Rylan": 3767,
      "Rort": 3768,
      "##bell": 3769,
      "Brui": 3770,
      "##iti": 3771,
      "Crow": 3772,
      "Campbell": 3773,
      "Bannon": 3774,
      "##vedt": 3775,
      "Rortvedt": 3776,
      "Bruihl": 3777,
      "Uel": 3778,
      "Herrin": 3779,
      "Erich": 3780,
      "Uelmen": 3781,
      "DL": 3782,
      "Val": 3783,
      "Means": 3784,
      "Morris": 3785,
      "Gomez": 3786,
      "##miah": 3787,
      "Paris": 3788,
      "Jeremiah": 3789,
      "##lod": 3790,
      "Jeurys": 3791,
      "Familia": 3792,
      "Kyren": 3793,
      "Rav": 3794,
      "How": 3795,
      "Fau": 3796,
      "##ckler": 3797,
      "Meckler": 3798,
      "Ornel": 3799,
      "Faucher": 3800,
      "Ornelas": 3801,
      "Mlod": 3802,
      "##zinski": 3803,
      "Carmen": 3804,
      "Mlodzinski": 3805,
      "Lawlar": 3806,
      "##uca": 3807,
      "Garza": 3808,
      "Marwin": 3809,
      "Jonny": 3810,
      "DeLuca": 3811,
      "##alencia": 3812,
      "Howard": 3813,
      "##rock": 3814,
      "Schrock": 3815,
      "Kelvin": 3816,
      "73": 3817,
      "Siani": 3818,
      "##illan": 3819,
      "Dodd": 3820,
      "##wil": 3821,
      "Lester": 3822,
      "Bush": 3823,
      "Ehi": 3824,
      "Tena": 3825,
      "Bundy": 3826,
      "Evans": 3827,
      "Eduard": 3828,
      "Adrianza": 3829,
      "Bazardo": 3830,
      "Ehire": 3831,
      "##cius": 3832,
      "Javy": 3833,
      "Lipcius": 3834,
      "Denn": 3835,
      "Dennis": 3836,
      "Jam": 3837,
      "Leon": 3838,
      "##ahl": 3839,
      "Swarmer": 3840,
      "Yard": 3841,
      "##ban": 3842,
      "##cc": 3843,
      "##arro": 3844,
      "##stad": 3845,
      "Chi": 3846,
      "##onta": 3847,
      "Wol": 3848,
      "##pie": 3849,
      "##aspie": 3850,
      "Chuck": 3851,
      "Frankie": 3852,
      "McCarty": 3853,
      "Gillaspie": 3854,
      "Chuckie": 3855,
      "##nbu": 3856,
      "##wig": 3857,
      "Weber": 3858,
      "Turnbu": 3859,
      "Ashby": 3860,
      "Hartwig": 3861,
      "Turnbull": 3862,
      "Jac": 3863,
      "##rook": 3864,
      "Murfee": 3865,
      "Bleier": 3866,
      "Uri": 3867,
      "##esi": 3868,
      "Waldron": 3869,
      "Sky": 3870,
      "Ball": 3871,
      "McD": 3872,
      "Poppen": 3873,
      "##nett": 3874,
      "Weston": 3875,
      "Tol": 3876,
      "##chesi": 3877,
      "##tton": 3878,
      "Abner": 3879,
      "Lucchesi": 3880,
      "Buttó": 3881,
      "Uribe": 3882,
      "Kerr": 3883,
      "Gos": 3884,
      "Santillan": 3885,
      "158": 3886,
      "Isaiah": 3887,
      "139": 3888,
      "Overcast": 3889,
      "Montas": 3890,
      "141": 3891,
      "Vás": 3892,
      "##icz": 3893,
      "140": 3894,
      "Vásquez": 3895,
      "##cuto": 3896,
      "##erecuto": 3897,
      "Querecuto": 3898,
      "119": 3899,
      "147": 3900,
      "Sorsa": 3901,
      "Sou": 3902,
      "Esteban": 3903,
      "142": 3904,
      "##ib": 3905,
      "137": 3906,
      "134": 3907,
      "Juniel": 3908,
      "Bal": 3909,
      "Kil": 3910,
      "Sel": 3911,
      "##rom": 3912,
      "##Grom": 3913,
      "Keaton": 3914,
      "Sulser": 3915,
      "deGrom": 3916,
      "Hutch": 3917,
      "##iott": 3918,
      "Sammy": 3919,
      "135": 3920,
      "Hutchison": 3921,
      "Vilo": 3922,
      "Solak": 3923,
      "Viloria": 3924,
      "Kohl": 3925,
      "145": 3926,
      "Dahl": 3927,
      "Low": 3928,
      "118": 3929,
      "Darius": 3930,
      "Capra": 3931,
      "Zast": 3932,
      "##zny": 3933,
      "##enter": 3934,
      "##ryzny": 3935,
      "Ashton": 3936,
      "Zastryzny": 3937,
      "Palencia": 3938,
      "138": 3939,
      "Lov": 3940,
      "##maine": 3941,
      "Jermaine": 3942,
      "##elken": 3943,
      "117": 3944,
      "Wendelken": 3945,
      "##witz": 3946,
      "Horwitz": 3947,
      "Ac": 3948,
      "##po": 3949,
      "Padlo": 3950,
      "Gus": 3951,
      "Pack": 3952,
      "Hopkins": 3953,
      "Fu": 3954,
      "Walter": 3955,
      "143": 3956,
      "133": 3957,
      "116": 3958,
      "Ferrer": 3959,
      "136": 3960,
      "Edgar": 3961,
      "Roman": 3962,
      "Fe": 3963,
      "##bie": 3964,
      "##use": 3965,
      "Jaylin": 3966,
      "Burdick": 3967,
      "70": 3968,
      "##ques": 3969,
      "##era": 3970,
      "Battenfield": 3971,
      "Jacques": 3972,
      "74": 3973,
      "144": 3974,
      "##ee": 3975,
      "##ady": 3976,
      "##arden": 3977,
      "Rico": 3978,
      "Sche": 3979,
      "Meib": 3980,
      "Meibrys": 3981,
      "##rum": 3982,
      "##chie": 3983,
      "Archie": 3984,
      "Nogos": 3985,
      "Nogosek": 3986,
      "Ace": 3987,
      "Kj": 3988,
      "Pick": 3989,
      "##vedo": 3990,
      "##erstad": 3991,
      "##ato": 3992,
      "Heston": 3993,
      "Peters": 3994,
      "Acevedo": 3995,
      "Kjerstad": 3996,
      "Char": 3997,
      "##roz": 3998,
      "Quiroz": 3999,
      "Jamie": 4000,
      "Han": 4001,
      "##ermo": 4002,
      "Liam": 4003,
      "Neuse": 4004,
      "Sheldon": 4005,
      "Por": 4006,
      "##wey": 4007,
      "Kohlwey": 4008,
      "Porter": 4009,
      "Swe": 4010,
      "Mic": 4011,
      "Pre": 4012,
      "##ev": 4013,
      "##elady": 4014,
      "Bennett": 4015,
      "120": 4016,
      "Lovelady": 4017,
      "Gó": 4018,
      "Iv": 4019,
      "##mez": 4020,
      "Moisés": 4021,
      "Gómez": 4022,
      "Iván": 4023,
      "Day": 4024,
      "##sta": 4025,
      "Just": 4026,
      "Stephens": 4027,
      "Festa": 4028,
      "Charles": 4029,
      "##avinger": 4030,
      "Cleavinger": 4031,
      "Moronta": 4032,
      "Proctor": 4033,
      "Veen": 4034,
      "Wor": 4035,
      "All": 4036,
      "##ales": 4037,
      "Murray": 4038,
      "146": 4039,
      "Rangel": 4040,
      "Deny": 4041,
      "Jas": 4042,
      "Kne": 4043,
      "##arr": 4044,
      "Goodrum": 4045,
      "Denyi": 4046,
      "16": 4047,
      "Naugh": 4048,
      "Wing": 4049,
      "121": 4050,
      "Espinoza": 4051,
      "Bolton": 4052,
      "Naughton": 4053,
      "Au": 4054,
      "Ze": 4055,
      "##iér": 4056,
      "Gutiér": 4057,
      "Gutiérrez": 4058,
      "Richardson": 4059,
      "Bolt": 4060,
      "Skye": 4061,
      "Gou": 4062,
      "Wicks": 4063,
      "##oy": 4064,
      "##acho": 4065,
      "Ramsey": 4066,
      "Heath": 4067,
      "McCoy": 4068,
      "Hobie": 4069,
      "Luciano": 4070,
      "##deau": 4071,
      "Goudeau": 4072,
      "02": 4073,
      "Holland": 4074,
      "Goss": 4075,
      "Ivan": 4076,
      "Mal": 4077,
      "##elin": 4078,
      "Wingenter": 4079,
      "Gosselin": 4080,
      "Daz": 4081,
      "##ight": 4082,
      "##arre": 4083,
      "##ayne": 4084,
      "Jhonathan": 4085,
      "Gose": 4086,
      "Levi": 4087,
      "Winans": 4088,
      "Auer": 4089,
      "Uce": 4090,
      "##mis": 4091,
      "##ciso": 4092,
      "Narciso": 4093,
      "Crook": 4094,
      "Jasson": 4095,
      "Uceta": 4096,
      "Dér": 4097,
      "Mears": 4098,
      "Cecc": 4099,
      "Slade": 4100,
      "Guzman": 4101,
      "Guzmán": 4102,
      "Dérmis": 4103,
      "Cecconi": 4104,
      "Bach": 4105,
      "##oka": 4106,
      "Dei": 4107,
      "Grego": 4108,
      "Hansel": 4109,
      "Soroka": 4110,
      "Nic": 4111,
      "Vim": 4112,
      "Carlton": 4113,
      "Brendon": 4114,
      "Machín": 4115,
      "Gage": 4116,
      "Vimael": 4117,
      "Banda": 4118,
      "Sto": 4119,
      "Cain": 4120,
      "##ener": 4121,
      "##ence": 4122,
      "Neal": 4123,
      "Headrick": 4124,
      "##eh": 4125,
      "Kelley": 4126,
      "Bueh": 4127,
      "Buehler": 4128,
      "Dor": 4129,
      "Jarl": 4130,
      "Kay": 4131,
      "Joyce": 4132,
      "Marcos": 4133,
      "Whitley": 4134,
      "Selby": 4135,
      "##izer": 4136,
      "Hendriks": 4137,
      "##wicz": 4138,
      "##iewicz": 4139,
      "Misiewicz": 4140,
      "Kra": 4141,
      "Kinger": 4142,
      "Sne": 4143,
      "##row": 4144,
      "Simon": 4145,
      "Weissert": 4146,
      "Micah": 4147,
      "Kingery": 4148,
      "Snead": 4149,
      "Detwil": 4150,
      "Shawver": 4151,
      "Detwiler": 4152,
      "##jon": 4153,
      "Jahm": 4154,
      "##aston": 4155,
      "Knapp": 4156,
      "Morejon": 4157,
      "Jahmai": 4158,
      "##unez": 4159,
      "Willingham": 4160,
      "Romo": 4161,
      "Amos": 4162,
      "Packy": 4163,
      "##gress": 4164,
      "##gum": 4165,
      "##ovich": 4166,
      "Progress": 4167,
      "McGar": 4168,
      "Heller": 4169,
      "Jarlín": 4170,
      "Progressive": 4171,
      "##rank": 4172,
      "##frank": 4173,
      "##sk": 4174,
      "##asiti": 4175,
      "Carasiti": 4176,
      "Wrig": 4177,
      "##od": 4178,
      "##rola": 4179,
      "##gue": 4180,
      "Cedrola": 4181,
      "Wrigley": 4182,
      "Jen": 4183,
      "##ters": 4184,
      "##sins": 4185,
      "Tyson": 4186,
      "##merson": 4187,
      "Cousins": 4188,
      "Paolo": 4189,
      "Preston": 4190,
      "Fenw": 4191,
      "##pton": 4192,
      "##ors": 4193,
      "Coors": 4194,
      "Lagar": 4195,
      "Pineda": 4196,
      "Fenway": 4197,
      "Lagares": 4198,
      "Yer": 4199,
      "Alcala": 4200,
      "Sousa": 4201,
      "Orio": 4202,
      "at": 4203,
      "Isan": 4204,
      "Yards": 4205,
      "Oriole": 4206,
      "17": 4207,
      "##sell": 4208,
      "##kau": 4209,
      "##cker": 4210,
      "Great": 4211,
      "Bukau": 4212,
      "Valera": 4213,
      "##skas": 4214,
      "Bukauskas": 4215,
      "##ont": 4216,
      "Foster": 4217,
      "Sa": 4218,
      "Yor": 4219,
      "Joely": 4220,
      "Barger": 4221,
      "##ance": 4222,
      "Stam": 4223,
      "##herford": 4224,
      "Quin": 4225,
      "Liberato": 4226,
      "Rutherford": 4227,
      "##cinski": 4228,
      "##ault": 4229,
      "Rucinski": 4230,
      "Workman": 4231,
      "Nunez": 4232,
      "##alfrank": 4233,
      "Gust": 4234,
      "Fernández": 4235,
      "Saalfrank": 4236,
      "Dey": 4237,
      "Jed": 4238,
      "Yac": 4239,
      "##onis": 4240,
      "##abonis": 4241,
      "Lewin": 4242,
      "##risto": 4243,
      "McGee": 4244,
      "Lowrie": 4245,
      "Yacabonis": 4246,
      "##bast": 4247,
      "Sebast": 4248,
      "Boyle": 4249,
      "Archer": 4250,
      "Euri": 4251,
      "Pis": 4252,
      "Kean": 4253,
      "##cotty": 4254,
      "Junk": 4255,
      "Mejia": 4256,
      "Janson": 4257,
      "Auerbach": 4258,
      "Piscotty": 4259,
      "##ace": 4260,
      "##yon": 4261,
      "Hoy": 4262,
      "Watson": 4263,
      "An": 4264,
      "##astida": 4265,
      "Conley": 4266,
      "##ovic": 4267,
      "Morales": 4268,
      "##azovic": 4269,
      "Elier": 4270,
      "Sawyer": 4271,
      "Lavastida": 4272,
      "Balazovic": 4273,
      "Denz": 4274,
      "Difo": 4275,
      "Egu": 4276,
      "Troy": 4277,
      "##rth": 4278,
      "##Farland": 4279,
      "McFarland": 4280,
      "Gerardo": 4281,
      "McArth": 4282,
      "Eguy": 4283,
      "McArthur": 4284,
      "Fedde": 4285,
      "Did": 4286,
      "##illa": 4287,
      "Darren": 4288,
      "Wag": 4289,
      "##ij": 4290,
      "Matij": 4291,
      "##emann": 4292,
      "Ravelo": 4293,
      "##evic": 4294,
      "Matijevic": 4295,
      "Koss": 4296,
      "Schul": 4297,
      "Rosa": 4298,
      "Bachman": 4299,
      "Dam": 4300,
      "Easton": 4301,
      "Kitt": 4302,
      "##gi": 4303,
      "##redge": 4304,
      "Millas": 4305,
      "Wolf": 4306,
      "Kittredge": 4307,
      "Shen": 4308,
      "Curtiss": 4309,
      "19": 4310,
      "23": 4311,
      "##eel": 4312,
      "##ledge": 4313,
      "##orn": 4314,
      "##eney": 4315,
      "Monte": 4316,
      "Dungan": 4317,
      "Cer": 4318,
      "Nai": 4319,
      "Elies": 4320,
      "Naile": 4321,
      "Nat": 4322,
      "##ue": 4323,
      "##vich": 4324,
      "##kenh": 4325,
      "Keith": 4326,
      "Knight": 4327,
      "Blankenh": 4328,
      "Bowman": 4329,
      "Blankenhorn": 4330,
      "18": 4331,
      "Carden": 4332,
      "Mann": 4333,
      "Rub": 4334,
      "Cronin": 4335,
      "Deivi": 4336,
      "Cardenas": 4337,
      "Hem": 4338,
      "77": 4339,
      "##hr": 4340,
      "##gard": 4341,
      "##cht": 4342,
      "##ede": 4343,
      "Reiss": 4344,
      "Beede": 4345,
      "Sogard": 4346,
      "Knehr": 4347,
      "28": 4348,
      "Wisler": 4349,
      "Maggi": 4350,
      "Kramer": 4351,
      "##jam": 4352,
      "Bracho": 4353,
      "Benjam": 4354,
      "Duffey": 4355,
      "Keefe": 4356,
      "Benjamin": 4357,
      "Tarn": 4358,
      "Ald": 4359,
      "Tarnok": 4360,
      "Taw": 4361,
      "##ñuel": 4362,
      "##elps": 4363,
      "Logue": 4364,
      "Phelps": 4365,
      "Bañuel": 4366,
      "Tawa": 4367,
      "Bañuelos": 4368,
      "26": 4369,
      "Kolo": 4370,
      "##svar": 4371,
      "##zsvar": 4372,
      "Hendrix": 4373,
      "Stock": 4374,
      "Kolozsvar": 4375,
      "Kolozsvary": 4376,
      "78": 4377,
      "##ice": 4378,
      "##etz": 4379,
      "Burdi": 4380,
      "75": 4381,
      "Nott": 4382,
      "Sher": 4383,
      "Nottingham": 4384,
      "25": 4385,
      "Cat": 4386,
      "Fab": 4387,
      "Inter": 4388,
      "Jor": 4389,
      "##zel": 4390,
      "##ise": 4391,
      "Walton": 4392,
      "##hans": 4393,
      "##ference": 4394,
      "Pries": 4395,
      "Gregori": 4396,
      "Catcher": 4397,
      "Interference": 4398,
      "Rick": 4399,
      "##ky": 4400,
      "##racl": 4401,
      "Barracl": 4402,
      "Daniels": 4403,
      "Palme": 4404,
      "Elieser": 4405,
      "Ricky": 4406,
      "Barraclough": 4407,
      "79": 4408,
      "Gustav": 4409,
      "27": 4410,
      "Sis": 4411,
      "Becht": 4412,
      "Alcides": 4413,
      "Bechtold": 4414,
      "##niel": 4415,
      "##gt": 4416,
      "River": 4417,
      "Castano": 4418,
      "Vogt": 4419,
      "Zeuch": 4420,
      "McGarry": 4421,
      "24": 4422,
      "Vie": 4423,
      "Stout": 4424,
      "Lind": 4425,
      "Leb": 4426,
      "Stammen": 4427,
      "30": 4428,
      "Gent": 4429,
      "##dn": 4430,
      "##chet": 4431,
      "##unk": 4432,
      "Palka": 4433,
      "Crochet": 4434,
      "##iotti": 4435,
      "Allard": 4436,
      "Gentry": 4437,
      "22": 4438,
      "68": 4439,
      "##dison": 4440,
      "Addison": 4441,
      "##shinski": 4442,
      "Mushinski": 4443,
      "Kolby": 4444,
      "##ls": 4445,
      "Dec": 4446,
      "Huls": 4447,
      "Ruben": 4448,
      "Hulsizer": 4449,
      "01": 4450,
      "Da": 4451,
      "Qs": 4452,
      "Rin": 4453,
      "##ens": 4454,
      "Durbin": 4455,
      "Misael": 4456,
      "Rivero": 4457,
      "Qsar": 4458,
      "Rincon": 4459,
      "Nich": 4460,
      "Upton": 4461,
      "Carreras": 4462,
      "Tres": 4463,
      "Haley": 4464,
      "Kilian": 4465,
      "Nicholas": 4466,
      "Wid": 4467,
      "##iro": 4468,
      "Legum": 4469,
      "Vines": 4470,
      "Widener": 4471,
      "Legumina": 4472,
      "21": 4473,
      "Yairo": 4474,
      "##cardo": 4475,
      "##oach": 4476,
      "##vison": 4477,
      "Ricardo": 4478,
      "Wily": 4479,
      "##igne": 4480,
      "Trivino": 4481,
      "Louis": 4482,
      "DeLoach": 4483,
      "Lavigne": 4484,
      "Deyvison": 4485,
      "LJ": 4486,
      "Gro": 4487,
      "Blaz": 4488,
      "##burk": 4489,
      "##nderburk": 4490,
      "##hawn": 4491,
      "MacKinn": 4492,
      "Funderburk": 4493,
      "Blaze": 4494,
      "MacKinnon": 4495,
      "Rol": 4496,
      "##arek": 4497,
      "Mendo": 4498,
      "Britton": 4499,
      "Gipson": 4500,
      "Kolarek": 4501,
      "Navarro": 4502,
      "Scheiner": 4503,
      "Didi": 4504,
      "Gregorius": 4505,
      "Mendoza": 4506,
      "##make": 4507,
      "##wmake": 4508,
      "##aux": 4509,
      "Rainer": 4510,
      "Shewmake": 4511,
      "Darwin": 4512,
      "##bree": 4513,
      "Moises": 4514,
      "Hembree": 4515,
      "Bos": 4516,
      "Eden": 4517,
      "##asser": 4518,
      "Groshans": 4519,
      "Dereck": 4520,
      "Avan": 4521,
      "Gsell": 4522,
      "Hino": 4523,
      "##69": 4524,
      "##josa": 4525,
      "##roa": 4526,
      "Bret": 4527,
      "##zek": 4528,
      "Berroa": 4529,
      "Kervin": 4530,
      "Boswell": 4531,
      "Avans": 4532,
      "Gsellman": 4533,
      "Hinojosa": 4534,
      "Di": 4535,
      "Dow": 4536,
      "Dir": 4537,
      "Lyon": 4538,
      "Ora": 4539,
      "Tro": 4540,
      "##mael": 4541,
      "Ismael": 4542,
      "Milone": 4543,
      "Pozo": 4544,
      "Tolbert": 4545,
      "Jensen": 4546,
      "Fabian": 4547,
      "Dirden": 4548,
      "Cri": 4549,
      "Hann": 4550,
      "Krook": 4551,
      "##bio": 4552,
      "##zon": 4553,
      "##kee": 4554,
      "Michel": 4555,
      "##lanc": 4556,
      "Woods": 4557,
      "Yankee": 4558,
      "Whitefield": 4559,
      "Jerar": 4560,
      "Rutledge": 4561,
      "Price": 4562,
      "Leblanc": 4563,
      "Declan": 4564,
      "Darwinzon": 4565,
      "Hannah": 4566,
      "Vi": 4567,
      "##inson": 4568,
      "##inero": 4569,
      "##ister": 4570,
      "Wei": 4571,
      "Caminero": 4572,
      "##aggerty": 4573,
      "Swaggerty": 4574,
      "Sweet": 4575,
      "Tul": 4576,
      "##brook": 4577,
      "##rod": 4578,
      "##ffey": 4579,
      "Casteel": 4580,
      "##ipe": 4581,
      "Toffey": 4582,
      "Felipe": 4583,
      "Tully": 4584,
      "82": 4585,
      "Bish": 4586,
      "Cent": 4587,
      "Emerson": 4588,
      "Abad": 4589,
      "Chaparro": 4590,
      "Westbrook": 4591,
      "Wagner": 4592,
      "Bishop": 4593,
      "Centre": 4594,
      "PNC": 4595,
      "##bn": 4596,
      "Vodn": 4597,
      "Vodnik": 4598,
      "Kade": 4599,
      "##mín": 4600,
      "##meyer": 4601,
      "German": 4602,
      "Greiner": 4603,
      "Paulino": 4604,
      "##assmeyer": 4605,
      "Mercedes": 4606,
      "Plassmeyer": 4607,
      "Family": 4608,
      "Yermín": 4609,
      "##ustrom": 4610,
      "##pic": 4611,
      "##rian": 4612,
      "##osta": 4613,
      "Jef": 4614,
      "Neustrom": 4615,
      "Silvino": 4616,
      "McDon": 4617,
      "Tropic": 4618,
      "Tropicana": 4619,
      "29": 4620,
      "76": 4621,
      "Dome": 4622,
      "Glo": 4623,
      "Rate": 4624,
      "##cle": 4625,
      "##70": 4626,
      "##dger": 4627,
      "##arante": 4628,
      "Guarante": 4629,
      "Dodger": 4630,
      "Life": 4631,
      "Target": 4632,
      "Oracle": 4633,
      "Globe": 4634,
      "Guaranteed": 4635,
      "Od": 4636,
      "##nen": 4637,
      "##key": 4638,
      "##alberto": 4639,
      "Adalberto": 4640,
      "Mondes": 4641,
      "Colten": 4642,
      "Brennen": 4643,
      "Dowdy": 4644,
      "Mondesi": 4645,
      "Bast": 4646,
      "Bank": 4647,
      "Cit": 4648,
      "With": 4649,
      "##zen": 4650,
      "##real": 4651,
      "##erspo": 4652,
      "Blaine": 4653,
      "##izens": 4654,
      "Petco": 4655,
      "Tori": 4656,
      "Baez": 4657,
      "Little": 4658,
      "Citizens": 4659,
      "Witherspo": 4660,
      "Witherspoon": 4661,
      "Hard": 4662,
      "Ney": 4663,
      "##fy": 4664,
      "##onrod": 4665,
      "##kes": 4666,
      "##idas": 4667,
      "Cotton": 4668,
      "Coonrod": 4669,
      "Quero": 4670,
      "Elliot": 4671,
      "Bastidas": 4672,
      "Neyfy": 4673,
      "Sr": 4674,
      "Lakins": 4675,
      "LaMarre": 4676,
      "Kauffman": 4677,
      "Acosta": 4678,
      "Cerda": 4679,
      "83": 4680,
      "Kad": 4681,
      "Sad": 4682,
      "##acock": 4683,
      "##no": 4684,
      "Peacock": 4685,
      "Armando": 4686,
      "Brantly": 4687,
      "Felix": 4688,
      "Rave": 4689,
      "Far": 4690,
      "Jandel": 4691,
      "Oak": 4692,
      "##end": 4693,
      "##eño": 4694,
      "##ute": 4695,
      "Bra": 4696,
      "##edia": 4697,
      "Maid": 4698,
      "Maze": 4699,
      "Colise": 4700,
      "Cedeño": 4701,
      "Heredia": 4702,
      "Minute": 4703,
      "Guillermo": 4704,
      "Gustave": 4705,
      "Oakland": 4706,
      "Mazeika": 4707,
      "Coliseum": 4708,
      "Come": 4709,
      "Cant": 4710,
      "Zam": 4711,
      "Schunk": 4712,
      "##rica": 4713,
      "Denzel": 4714,
      "Comerica": 4715,
      "Zamora": 4716,
      "80": 4717,
      "Si": 4718,
      "##bile": 4719,
      "##ump": 4720,
      "##zzi": 4721,
      "Strump": 4722,
      "Mobile": 4723,
      "Strumpf": 4724,
      "##85": 4725,
      "##uis": 4726,
      "##igan": 4727,
      "##oli": 4728,
      "Truis": 4729,
      "Wallace": 4730,
      "Yoel": 4731,
      "Sanó": 4732,
      "Leonard": 4733,
      "Truist": 4734,
      "##jay": 4735,
      "##lers": 4736,
      "##ello": 4737,
      "Wilder": 4738,
      "McCul": 4739,
      "Duzen": 4740,
      "Burgos": 4741,
      "##cue": 4742,
      "Foscue": 4743,
      "Wilderd": 4744,
      "McCullers": 4745,
      "Duzenack": 4746,
      "Chance": 4747,
      "Reetz": 4748,
      "Elvin": 4749,
      "Bates": 4750,
      "Kriske": 4751,
      "Jakson": 4752,
      "Rincones": 4753,
      "81": 4754,
      "Ka": 4755,
      "Mos": 4756,
      "Wel": 4757,
      "##ein": 4758,
      "Bliss": 4759,
      "Lock": 4760,
      "Canario": 4761,
      "Raynel": 4762,
      "Matheny": 4763,
      "Mosqu": 4764,
      "Dip": 4765,
      "##yson": 4766,
      "##als": 4767,
      "Adcock": 4768,
      "Patton": 4769,
      "McKinley": 4770,
      "##doy": 4771,
      "##ionals": 4772,
      "Norwood": 4773,
      "Godoy": 4774,
      "Nationals": 4775,
      "Mes": 4776,
      "Maver": 4777,
      "Ví": 4778,
      "##dt": 4779,
      "Stou": 4780,
      "Arano": 4781,
      "Suero": 4782,
      "Jeison": 4783,
      "Diehl": 4784,
      "Handley": 4785,
      "McDowell": 4786,
      "Maverick": 4787,
      "Víctor": 4788,
      "Stoudt": 4789,
      "Kameron": 4790,
      "Misner": 4791,
      "Nas": 4792,
      "Viz": 4793,
      "Ya": 4794,
      "##ud": 4795,
      "##eries": 4796,
      "##isson": 4797,
      "Chur": 4798,
      "Mario": 4799,
      "##iday": 4800,
      "Leonel": 4801,
      "Manzardo": 4802,
      "Barr": 4803,
      "Jefferies": 4804,
      "##jure": 4805,
      "Fox": 4806,
      "Shenton": 4807,
      "Yajure": 4808,
      "Church": 4809,
      "69": 4810,
      "Berry": 4811,
      "Fis": 4812,
      "##jah": 4813,
      "##arel": 4814,
      "##llister": 4815,
      "Rony": 4816,
      "Elijah": 4817,
      "Yusniel": 4818,
      "Jharel": 4819,
      "Norby": 4820,
      "McAllister": 4821,
      "Fisher": 4822,
      "Landon": 4823,
      "##enis": 4824,
      "Roenis": 4825,
      "##idd": 4826,
      "##qui": 4827,
      "Rain": 4828,
      "Elías": 4829,
      "Franklin": 4830,
      "Nicolas": 4831,
      "Dermo": 4832,
      "Sanders": 4833,
      "Sabato": 4834,
      "Dermody": 4835,
      "loan": 4836,
      "par": 4837,
      "##epo": 4838,
      "##ián": 4839,
      "##gado": 4840,
      "##Depo": 4841,
      "##ffield": 4842,
      "Sheffield": 4843,
      "Cesar": 4844,
      "Dunand": 4845,
      "Hancock": 4846,
      "Sebastián": 4847,
      "Faria": 4848,
      "loanDepo": 4849,
      "park": 4850,
      "loanDepot": 4851,
      "Citi": 4852,
      "Vil": 4853,
      "##aez": 4854,
      "Narvaez": 4855,
      "Eddys": 4856,
      "Vilade": 4857,
      "65": 4858,
      "Bain": 4859,
      "Dubin": 4860,
      "Vivas": 4861,
      "Toribio": 4862,
      "67": 4863,
      "Acton": 4864,
      "##rell": 4865,
      "##riff": 4866,
      "##ieb": 4867,
      "Stevie": 4868,
      "Then": 4869,
      "##irn": 4870,
      "Hunt": 4871,
      "Colt": 4872,
      "Mucke": 4873,
      "Frias": 4874,
      "##nhirn": 4875,
      "Got": 4876,
      "Sherriff": 4877,
      "Groome": 4878,
      "Muckenhirn": 4879,
      "Padd": 4880,
      "##laza": 4881,
      "##68": 4882,
      "McS": 4883,
      "Perlaza": 4884,
      "Leandro": 4885,
      "Dorrian": 4886,
      "Paddack": 4887,
      "Ap": 4888,
      "##vy": 4889,
      "##lee": 4890,
      "Andres": 4891,
      "Coby": 4892,
      "Ronaldo": 4893,
      "Geoff": 4894,
      "Mayo": 4895,
      "Briceño": 4896,
      "7171": 4897,
      "7172": 4898,
      "7173": 4899,
      "7175": 4900,
      "7170": 4901,
      "7181": 4902,
      "7182": 4903,
      "7185": 4904,
      "7180": 4905,
      "7184": 4906,
      "7165": 4907,
      "7169": 4908,
      "Coulter": 4909,
      "6633": 4910,
      "85": 4911,
      "Hick": 4912,
      "##osio": 4913,
      "##entes": 4914,
      "##aun": 4915,
      "Andrews": 4916,
      "Teod": 4917,
      "7179": 4918,
      "7174": 4919,
      "7183": 4920,
      "6631": 4921,
      "6632": 4922,
      "6630": 4923,
      "Pages": 4924,
      "Fuentes": 4925,
      "Teodosio": 4926,
      "Snyder": 4927,
      "Jewell": 4928,
      "McCray": 4929,
      "Donny": 4930,
      "##mond": 4931,
      "Yoh": 4932,
      "Valdes": 4933,
      "7164": 4934,
      "Wolters": 4935,
      "Ritch": 4936,
      "##va": 4937,
      "##jchak": 4938,
      "##atz": 4939,
      "##ilyn": 4940,
      "##elli": 4941,
      "Muno": 4942,
      "##olajchak": 4943,
      "Mikolajchak": 4944,
      "Tolman": 4945,
      "##iddle": 4946,
      "Ritchie": 4947,
      "84": 4948,
      "##bit": 4949,
      "##fri": 4950,
      "Chat": 4951,
      "Small": 4952,
      "Dorow": 4953,
      "Jorbit": 4954,
      "Made": 4955,
      "##ccia": 4956,
      "##uccia": 4957,
      "##úbel": 4958,
      "##iser": 4959,
      "Wendzel": 4960,
      "7192": 4961,
      "Feduccia": 4962,
      "Damon": 4963,
      "Odúbel": 4964,
      "Kaiser": 4965,
      "Dayan": 4966,
      "##nri": 4967,
      "##wick": 4968,
      "Ster": 4969,
      "##omp": 4970,
      "McI": 4971,
      "Stecke": 4972,
      "Tromp": 4973,
      "Brien": 4974,
      "##íno": 4975,
      "Chadwick": 4976,
      "Adolph": 4977,
      "##caíno": 4978,
      "Vizcaíno": 4979,
      "##nrider": 4980,
      "Steckenrider": 4981,
      "Bald": 4982,
      "End": 4983,
      "Zar": 4984,
      "##way": 4985,
      "##elvis": 4986,
      "Shay": 4987,
      "##acio": 4988,
      "Orelvis": 4989,
      "Whitcomb": 4990,
      "7190": 4991,
      "Kaden": 4992,
      "Baldwin": 4993,
      "Cen": 4994,
      "Pi": 4995,
      "Pena": 4996,
      "##Shawn": 4997,
      "##ridge": 4998,
      "##rete": 4999,
      "##itas": 5000,
      "Keir": 5001,
      "##ians": 5002,
      "Freitas": 5003,
      "Brig": 5004,
      "##igl": 5005,
      "##teno": 5006,
      "Feltman": 5007,
      "Aldrete": 5008,
      "DaShawn": 5009,
      "Centeno": 5010,
      "Keirsey": 5011,
      "##tz": 5012,
      "##pley": 5013,
      "Stov": 5014,
      "##enitz": 5015,
      "Steve": 5016,
      "Mendez": 5017,
      "##uzio": 5018,
      "Hagen": 5019,
      "Kent": 5020,
      "Delgado": 5021,
      "Cropley": 5022,
      "Busenitz": 5023,
      "DeLuzio": 5024,
      "Sweeney": 5025,
      "Stovall": 5026,
      "Bristo": 5027,
      "Das": 5028,
      "Ing": 5029,
      "Terry": 5030,
      "##covich": 5031,
      "Berman": 5032,
      "Jairo": 5033,
      "Simpson": 5034,
      "Polcovich": 5035,
      "Kodi": 5036,
      "7177": 5037,
      "7178": 5038,
      "7167": 5039,
      "7168": 5040,
      "Kolton": 5041,
      "Quincy": 5042,
      "Schultz": 5043,
      "Ingram": 5044,
      "Odo": 5045,
      "Odd": 5046,
      "Sz": 5047,
      "Tal": 5048,
      "##ait": 5049,
      "##anier": 5050,
      "##rizzi": 5051,
      "##andler": 5052,
      "Chandler": 5053,
      "Walters": 5054,
      "Marrero": 5055,
      "##iendo": 5056,
      "Seig": 5057,
      "##apucki": 5058,
      "McClu": 5059,
      "Leonys": 5060,
      "Mosqueda": 5061,
      "Rainey": 5062,
      "Odorizzi": 5063,
      "Oddanier": 5064,
      "Szapucki": 5065,
      "McClure": 5066,
      "Farr": 5067,
      "Jantz": 5068,
      "Latz": 5069,
      "Nú": 5070,
      "##sons": 5071,
      "Ali": 5072,
      "##iciano": 5073,
      "Parsons": 5074,
      "Milligan": 5075,
      "Durán": 5076,
      "Witte": 5077,
      "##oliti": 5078,
      "Feliciano": 5079,
      "Palmeiro": 5080,
      "Farrell": 5081,
      "Jantzen": 5082,
      "Núñez": 5083,
      "Politi": 5084,
      "##dinson": 5085,
      "##anzo": 5086,
      "##alli": 5087,
      "##enig": 5088,
      "Eddinson": 5089,
      "Johnston": 5090,
      "Koenig": 5091,
      "7191": 5092,
      "Crick": 5093,
      "Case": 5094,
      "Kala": 5095,
      "Norge": 5096,
      "Vuk": 5097,
      "##bau": 5098,
      "##gbau": 5099,
      "##angel": 5100,
      "##ily": 5101,
      "Lugbau": 5102,
      "Luisangel": 5103,
      "Marty": 5104,
      "Cavalli": 5105,
      "Angelo": 5106,
      "Payton": 5107,
      "Holliday": 5108,
      "7193": 5109,
      "Navarre": 5110,
      "Talley": 5111,
      "Vukovich": 5112,
      "Lugbauer": 5113,
      "Navarreto": 5114,
      "Cairo": 5115,
      "Gold": 5116,
      "Gigl": 5117,
      "Lir": 5118,
      "Zab": 5119,
      "##64": 5120,
      "Matzek": 5121,
      "Castellano": 5122,
      "Costes": 5123,
      "Goti": 5124,
      "Gigliotti": 5125,
      "Liranzo": 5126,
      "Hal": 5127,
      "##ull": 5128,
      "##vo": 5129,
      "##pin": 5130,
      "Petey": 5131,
      "Elliott": 5132,
      "Sisco": 5133,
      "Halpin": 5134,
      "Vazquez": 5135,
      "##zy": 5136,
      "Roberson": 5137,
      "Brenan": 5138,
      "Pereda": 5139,
      "Hanifee": 5140,
      "Feliz": 5141,
      "Jhonny": 5142,
      "6629": 5143,
      "Justice": 5144,
      "63": 5145,
      "86": 5146,
      "Dra": 5147,
      "Gen": 5148,
      "Wyn": 5149,
      "##65": 5150,
      "Joseph": 5151,
      "##ovés": 5152,
      "##redo": 5153,
      "Yardley": 5154,
      "Genovés": 5155,
      "Bins": 5156,
      "Cis": 5157,
      "Fris": 5158,
      "##la": 5159,
      "##non": 5160,
      "##kx": 5161,
      "##anjo": 5162,
      "##lett": 5163,
      "##gua": 5164,
      "Spiers": 5165,
      "##hek": 5166,
      "Kokx": 5167,
      "Dobn": 5168,
      "Sandro": 5169,
      "Trenton": 5170,
      "Naranjo": 5171,
      "Welker": 5172,
      "Piña": 5173,
      "Wynne": 5174,
      "Cishek": 5175,
      "Dobnak": 5176,
      "Bin": 5177,
      "Okey": 5178,
      "Pann": 5179,
      "##nburg": 5180,
      "##61": 5181,
      "##62": 5182,
      "##63": 5183,
      "##ourio": 5184,
      "Chourio": 5185,
      "Tresh": 5186,
      "Cannon": 5187,
      "Luca": 5188,
      "Salas": 5189,
      "Nerwil": 5190,
      "Thornburg": 5191,
      "Yohel": 5192,
      "Pannone": 5193,
      "Nerwilian": 5194,
      "BJ": 5195,
      "Kal": 5196,
      "##ira": 5197,
      "##ko": 5198,
      "##abel": 5199,
      "Shar": 5200,
      "Wind": 5201,
      "Lucius": 5202,
      "Straily": 5203,
      "Bernabel": 5204,
      "Warming": 5205,
      "Jeferson": 5206,
      "Nasim": 5207,
      "Ast": 5208,
      "Baron": 5209,
      "Has": 5210,
      "Kav": 5211,
      "##60": 5212,
      "##uth": 5213,
      "##eros": 5214,
      "Mieses": 5215,
      "##adas": 5216,
      "Cook": 5217,
      "Willians": 5218,
      "Locke": 5219,
      "Marcelo": 5220,
      "Burt": 5221,
      "Elih": 5222,
      "Tatum": 5223,
      "##mpo": 5224,
      "Stumpo": 5225,
      "Meyer": 5226,
      "Tob": 5227,
      "Mederos": 5228,
      "Ryder": 5229,
      "Prieto": 5230,
      "##udillo": 5231,
      "Barrosa": 5232,
      "Zabala": 5233,
      "Kalish": 5234,
      "Astudillo": 5235,
      "Kavadas": 5236,
      "64": 5237,
      "Darn": 5238,
      "Hur": 5239,
      "Lab": 5240,
      "Wadd": 5241,
      "##67": 5242,
      "##gin": 5243,
      "##kowski": 5244,
      "##pedes": 5245,
      "##encia": 5246,
      "##ntino": 5247,
      "##acencia": 5248,
      "Burns": 5249,
      "Placencia": 5250,
      "Crim": 5251,
      "Tobias": 5252,
      "Darnell": 5253,
      "Hurst": 5254,
      "Waddell": 5255,
      "Kr": 5256,
      "Kasser": 5257,
      "North": 5258,
      "Wiel": 5259,
      "##ofer": 5260,
      "##dou": 5261,
      "##meri": 5262,
      "##menez": 5263,
      "##ona": 5264,
      "Demeri": 5265,
      "Conn": 5266,
      "Mondou": 5267,
      "McKay": 5268,
      "Cristofer": 5269,
      "Jimenez": 5270,
      "Palma": 5271,
      "Campos": 5272,
      "Justyn": 5273,
      "Malloy": 5274,
      "Vieaux": 5275,
      "Munoz": 5276,
      "Demeritte": 5277,
      "87": 5278,
      "Tir": 5279,
      "Yack": 5280,
      "##sel": 5281,
      "##scomb": 5282,
      "##Iver": 5283,
      "##riquez": 5284,
      "##ito": 5285,
      "Harry": 5286,
      "##ther": 5287,
      "Henriquez": 5288,
      "##aughter": 5289,
      "Slaughter": 5290,
      "MacIver": 5291,
      "##dany": 5292,
      "Lipscomb": 5293,
      "Mesa": 5294,
      "Tirso": 5295,
      "Yacksel": 5296,
      "Ax": 5297,
      "Dini": 5298,
      "Gle": 5299,
      "##ghan": 5300,
      "##aughan": 5301,
      "Leas": 5302,
      "McCaughan": 5303,
      "Herron": 5304,
      "Agustin": 5305,
      "Padilla": 5306,
      "Seigler": 5307,
      "##oto": 5308,
      "##inning": 5309,
      "##ndinning": 5310,
      "##isen": 5311,
      "##esley": 5312,
      "##kir": 5313,
      "Leah": 5314,
      "Bradlee": 5315,
      "Beesley": 5316,
      "Tole": 5317,
      "##rine": 5318,
      "7187": 5319,
      "Mulrine": 5320,
      "Buttrey": 5321,
      "Glendinning": 5322,
      "Leahy": 5323,
      "Bunn": 5324,
      "Skir": 5325,
      "##lieb": 5326,
      "##diño": 5327,
      "##with": 5328,
      "Brault": 5329,
      "Steward": 5330,
      "Gudiño": 5331,
      "Milan": 5332,
      "Norwith": 5333,
      "Cowles": 5334,
      "Hartlieb": 5335,
      "Roller": 5336,
      "Hardman": 5337,
      "Dasan": 5338,
      "Tolentino": 5339,
      "Bunnell": 5340,
      "Skirrow": 5341,
      "Aki": 5342,
      "Fish": 5343,
      "Leyton": 5344,
      "Nash": 5345,
      "##yam": 5346,
      "##gart": 5347,
      "Burr": 5348,
      "Shogo": 5349,
      "Céspedes": 5350,
      "Shugart": 5351,
      "Yoelqui": 5352,
      "Akiyam": 5353,
      "Akiyama": 5354,
      "Dris": 5355,
      "Sus": 5356,
      "Tice": 5357,
      "Wait": 5358,
      "##coll": 5359,
      "##dk": 5360,
      "##rillo": 5361,
      "##chav": 5362,
      "##osdany": 5363,
      "Roby": 5364,
      "##auley": 5365,
      "Adein": 5366,
      "Rijo": 5367,
      "Thya": 5368,
      "Antone": 5369,
      "Leosdany": 5370,
      "Cross": 5371,
      "Hector": 5372,
      "Hechav": 5373,
      "Wille": 5374,
      "##igato": 5375,
      "Jefferson": 5376,
      "Tejay": 5377,
      "Gross": 5378,
      "Wendell": 5379,
      "Prato": 5380,
      "Podk": 5381,
      "Navigato": 5382,
      "##arría": 5383,
      "Sebastian": 5384,
      "Schulfer": 5385,
      "Vieira": 5386,
      "McDonough": 5387,
      "Driscoll": 5388,
      "Waites": 5389,
      "Adeiny": 5390,
      "Thyago": 5391,
      "Hechavarría": 5392,
      "Podkul": 5393,
      "Cy": 5394,
      "Rold": 5395,
      "##kens": 5396,
      "##oser": 5397,
      "##eno": 5398,
      "Dearden": 5399,
      "Booser": 5400,
      "Torreal": 5401,
      "Byr": 5402,
      "Escobedo": 5403,
      "Schobel": 5404,
      "Leeper": 5405,
      "Jayden": 5406,
      "Jhonkens": 5407,
      "Axel": 5408,
      "Cyr": 5409,
      "Torrealba": 5410,
      "Jhonkensy": 5411,
      "Font": 5412,
      "Och": 5413,
      "##cut": 5414,
      "Deich": 5415,
      "Samuel": 5416,
      "Melvin": 5417,
      "Northcut": 5418,
      "Deichmann": 5419,
      "Cayne": 5420,
      "Kill": 5421,
      "Ledo": 5422,
      "Ue": 5423,
      "##lán": 5424,
      "##agar": 5425,
      "##mm": 5426,
      "##ving": 5427,
      "##ange": 5428,
      "##ckert": 5429,
      "##atan": 5430,
      "Lun": 5431,
      "Dee": 5432,
      "Alexy": 5433,
      "Mikey": 5434,
      "Antico": 5435,
      "##vere": 5436,
      "Grimm": 5437,
      "##bina": 5438,
      "Baragar": 5439,
      "Strange": 5440,
      "Mayer": 5441,
      "Urbina": 5442,
      "Irving": 5443,
      "Yefri": 5444,
      "Tayron": 5445,
      "Diplán": 5446,
      "Ueckert": 5447,
      "Ling": 5448,
      "##ces": 5449,
      "Jaden": 5450,
      "##shing": 5451,
      "Arol": 5452,
      "Jarod": 5453,
      "Vera": 5454,
      "Erla": 5455,
      "Hendry": 5456,
      "Canó": 5457,
      "Enriquez": 5458,
      "Lockridge": 5459,
      "Daw": 5460,
      "Kristo": 5461,
      "Vall": 5462,
      "##linger": 5463,
      "##fak": 5464,
      "##meon": 5465,
      "##anley": 5466,
      "##anny": 5467,
      "Stanley": 5468,
      "Channy": 5469,
      "##adway": 5470,
      "Rice": 5471,
      "Blayne": 5472,
      "McCull": 5473,
      "Enlow": 5474,
      "Matthews": 5475,
      "Cum": 5476,
      "Broadway": 5477,
      "Yeager": 5478,
      "Simeon": 5479,
      "Drake": 5480,
      "Dawson": 5481,
      "Kristofak": 5482,
      "McCullough": 5483,
      "Có": 5484,
      "Caiss": 5485,
      "Eck": 5486,
      "Gas": 5487,
      "Nance": 5488,
      "##rdo": 5489,
      "##45": 5490,
      "##jic": 5491,
      "Marman": 5492,
      "##owles": 5493,
      "Devan": 5494,
      "Jonatan": 5495,
      "##erniak": 5496,
      "Biggers": 5497,
      "Knowles": 5498,
      "Lampe": 5499,
      "Koperniak": 5500,
      "Zavier": 5501,
      "Hollis": 5502,
      "Pagés": 5503,
      "Lowther": 5504,
      "Sisk": 5505,
      "Córdo": 5506,
      "Caissie": 5507,
      "Gasper": 5508,
      "##jica": 5509,
      "Devanney": 5510,
      "Córdoba": 5511,
      "62": 5512,
      "Nw": 5513,
      "Nitt": 5514,
      "Of": 5515,
      "Pott": 5516,
      "Yord": 5517,
      "##ep": 5518,
      "##ogu": 5519,
      "##elas": 5520,
      "##thal": 5521,
      "Minaya": 5522,
      "7189": 5523,
      "Schneemann": 5524,
      "Malcom": 5525,
      "Quintero": 5526,
      "Binelas": 5527,
      "Fishman": 5528,
      "Nwogu": 5529,
      "Nittoli": 5530,
      "Potts": 5531,
      "Yordys": 5532,
      "Biddle": 5533,
      "Cad": 5534,
      "Cell": 5535,
      "Ori": 5536,
      "Tie": 5537,
      "##ucc": 5538,
      "##43": 5539,
      "##giani": 5540,
      "##pat": 5541,
      "##utt": 5542,
      "##elander": 5543,
      "##atley": 5544,
      "Chen": 5545,
      "##ielu": 5546,
      "Claud": 5547,
      "Whatley": 5548,
      "##kering": 5549,
      "Tanielu": 5550,
      "Larsen": 5551,
      "Prelander": 5552,
      "Kerkering": 5553,
      "Dunham": 5554,
      "Kilpat": 5555,
      "Damiano": 5556,
      "Palmegiani": 5557,
      "Lindgren": 5558,
      "Cellucc": 5559,
      "Orion": 5560,
      "Claudio": 5561,
      "Kilpatrick": 5562,
      "Cellucci": 5563,
      "Jha": 5564,
      "Wash": 5565,
      "Zap": 5566,
      "##uy": 5567,
      "##tan": 5568,
      "##demann": 5569,
      "##eryson": 5570,
      "##chán": 5571,
      "##ata": 5572,
      "##illing": 5573,
      "Marchán": 5574,
      "Decker": 5575,
      "Corona": 5576,
      "Betan": 5577,
      "Schwe": 5578,
      "Laweryson": 5579,
      "Kenedy": 5580,
      "Pacheco": 5581,
      "Hollow": 5582,
      "Fulford": 5583,
      "Tiedemann": 5584,
      "Jhailyn": 5585,
      "Washington": 5586,
      "Zapata": 5587,
      "31": 5588,
      "59": 5589,
      "Ley": 5590,
      "Muz": 5591,
      "Pita": 5592,
      "Sí": 5593,
      "Vello": 5594,
      "##ziotti": 5595,
      "##jin": 5596,
      "##utz": 5597,
      "Garry": 5598,
      "##shley": 5599,
      "Bender": 5600,
      "Spence": 5601,
      "Hao": 5602,
      "Yoend": 5603,
      "##ckett": 5604,
      "Boushley": 5605,
      "Cullen": 5606,
      "Justus": 5607,
      "Hicklen": 5608,
      "Muzziotti": 5609,
      "Símon": 5610,
      "Vellojin": 5611,
      "Yoendrys": 5612,
      "Aneuris": 5613,
      "Glow": 5614,
      "Gasser": 5615,
      "Nov": 5616,
      "Tener": 5617,
      "Yno": 5618,
      "##bal": 5619,
      "##yner": 5620,
      "##jardo": 5621,
      "##íbal": 5622,
      "Brink": 5623,
      "Miro": 5624,
      "##berland": 5625,
      "##itan": 5626,
      "Christin": 5627,
      "##owicz": 5628,
      "Maitan": 5629,
      "Conor": 5630,
      "##aplan": 5631,
      "##icelli": 5632,
      "McKend": 5633,
      "Johnathan": 5634,
      "Yoyner": 5635,
      "Delaplan": 5636,
      "##glio": 5637,
      "Fajardo": 5638,
      "6610": 5639,
      "Aníbal": 5640,
      "Sterling": 5641,
      "Hagenman": 5642,
      "Cumberland": 5643,
      "Tenerowicz": 5644,
      "Ynoa": 5645,
      "Miroglio": 5646,
      "McKendry": 5647,
      "Delaplane": 5648,
      "60": 5649,
      "Gate": 5650,
      "Lis": 5651,
      "Pont": 5652,
      "Vito": 5653,
      "Yovan": 5654,
      "##hold": 5655,
      "##41": 5656,
      "##sten": 5657,
      "##berse": 5658,
      "Alvin": 5659,
      "Aliendo": 5660,
      "##ffler": 5661,
      "Crou": 5662,
      "Dusten": 5663,
      "##zeck": 5664,
      "Estes": 5665,
      "Emmerson": 5666,
      "Robberse": 5667,
      "Horn": 5668,
      "Hanhold": 5669,
      "Weiman": 5670,
      "Sadzeck": 5671,
      "Friscia": 5672,
      "Holloway": 5673,
      "Gatewood": 5674,
      "Ponticelli": 5675,
      "Ae": 5676,
      "Hil": 5677,
      "##aga": 5678,
      "##can": 5679,
      "##cus": 5680,
      "##taya": 5681,
      "##dez": 5682,
      "##ves": 5683,
      "##ment": 5684,
      "Grace": 5685,
      "Jair": 5686,
      "Cartaya": 5687,
      "##antos": 5688,
      "Demar": 5689,
      "##teaga": 5690,
      "##guia": 5691,
      "Danis": 5692,
      "Arteaga": 5693,
      "Martor": 5694,
      "Escott": 5695,
      "Murr": 5696,
      "Munguia": 5697,
      "Montano": 5698,
      "Triantos": 5699,
      "Maikol": 5700,
      "Lile": 5701,
      "Bigge": 5702,
      "Beltre": 5703,
      "Daylen": 5704,
      "Yerzy": 5705,
      "Windham": 5706,
      "Aeverson": 5707,
      "Demarcus": 5708,
      "Escotto": 5709,
      "Cauley": 5710,
      "Kase": 5711,
      "Lara": 5712,
      "Nolin": 5713,
      "Pon": 5714,
      "##bler": 5715,
      "##tzel": 5716,
      "##hill": 5717,
      "##40": 5718,
      "##ávez": 5719,
      "##pel": 5720,
      "##enke": 5721,
      "Chávez": 5722,
      "Dugan": 5723,
      "Ronnie": 5724,
      "Hedbert": 5725,
      "Lamar": 5726,
      "Karcher": 5727,
      "Schebler": 5728,
      "Rolison": 5729,
      "McDonald": 5730,
      "Berryhill": 5731,
      "Appel": 5732,
      "Wieland": 5733,
      "Glowenke": 5734,
      "Kasevich": 5735,
      "Dy": 5736,
      "Dab": 5737,
      "Eis": 5738,
      "Iza": 5739,
      "Lolo": 5740,
      "Ping": 5741,
      "Sc": 5742,
      "Sey": 5743,
      "Tin": 5744,
      "Yake": 5745,
      "##oen": 5746,
      "##fredo": 5747,
      "##42": 5748,
      "##mour": 5749,
      "##wer": 5750,
      "##chton": 5751,
      "Adón": 5752,
      "Jeisson": 5753,
      "Wilber": 5754,
      "Phoen": 5755,
      "Kirwer": 5756,
      "##weeney": 5757,
      "McAfee": 5758,
      "Dugger": 5759,
      "Knebel": 5760,
      "Sheng": 5761,
      "Crichton": 5762,
      "McSweeney": 5763,
      "Dabovich": 5764,
      "Eisert": 5765,
      "Izaac": 5766,
      "Seymour": 5767,
      "Tineo": 5768,
      "Phoenix": 5769,
      "Lant": 5770,
      "Valen": 5771,
      "##tman": 5772,
      "##tuz": 5773,
      "##39": 5774,
      "##igua": 5775,
      "##king": 5776,
      "##zuel": 5777,
      "##onzo": 5778,
      "Stro": 5779,
      "##oso": 5780,
      "Chie": 5781,
      "##ffi": 5782,
      "Raffi": 5783,
      "Pertuz": 5784,
      "Huang": 5785,
      "Wilking": 5786,
      "Isola": 5787,
      "Henson": 5788,
      "Pabon": 5789,
      "Yolbert": 5790,
      "God": 5791,
      "Kyler": 5792,
      "Lantigua": 5793,
      "Valenzuel": 5794,
      "Strotman": 5795,
      "Chieh": 5796,
      "Valenzuela": 5797,
      "Mena": 5798,
      "Nacho": 5799,
      "Rus": 5800,
      "Tam": 5801,
      "##eon": 5802,
      "##odes": 5803,
      "##hen": 5804,
      "##hman": 5805,
      "##gs": 5806,
      "##ezada": 5807,
      "##andino": 5808,
      "##ommer": 5809,
      "Marse": 5810,
      "##iden": 5811,
      "Cohen": 5812,
      "Blandino": 5813,
      "Parada": 5814,
      "McKeon": 5815,
      "Fraizer": 5816,
      "Quezada": 5817,
      "Rhodes": 5818,
      "Denzer": 5819,
      "Brigden": 5820,
      "Lisandro": 5821,
      "Ponce": 5822,
      "Tamarez": 5823,
      "Marsee": 5824,
      "61": 5825,
      "Og": 5826,
      "##cz": 5827,
      "##mfield": 5828,
      "##pak": 5829,
      "##chia": 5830,
      "##ersby": 5831,
      "Lemo": 5832,
      "Supak": 5833,
      "Hernán": 5834,
      "Hernai": 5835,
      "Stevens": 5836,
      "Duke": 5837,
      "Torin": 5838,
      "Osmy": 5839,
      "Burrow": 5840,
      "Rumfield": 5841,
      "Darell": 5842,
      "Yanquiel": 5843,
      "Bowlan": 5844,
      "Duncan": 5845,
      "Gregorio": 5846,
      "Sikes": 5847,
      "Endersby": 5848,
      "##czak": 5849,
      "Lemoine": 5850,
      "Hernaiz": 5851,
      "Aiel": 5852,
      "Hac": 5853,
      "Rio": 5854,
      "Uvila": 5855,
      "Carver": 5856,
      "Theo": 5857,
      "Roden": 5858,
      "##liff": 5859,
      "Greyson": 5860,
      "Wink": 5861,
      "Artis": 5862,
      "##kenberg": 5863,
      "Jenista": 5864,
      "Anchia": 5865,
      "Stockton": 5866,
      "Braiden": 5867,
      "Aiello": 5868,
      "Hackenberg": 5869,
      "Bola": 5870,
      "Ded": 5871,
      "Kato": 5872,
      "Lar": 5873,
      "Scu": 5874,
      "Tino": 5875,
      "Tink": 5876,
      "Yur": 5877,
      "##87": 5878,
      "##rael": 5879,
      "##uke": 5880,
      "##37": 5881,
      "##ños": 5882,
      "##44": 5883,
      "##anael": 5884,
      "##elow": 5885,
      "##ntosh": 5886,
      "Marche": 5887,
      "##imont": 5888,
      "##raker": 5889,
      "Spraker": 5890,
      "Rees": 5891,
      "Schli": 5892,
      "Mangum": 5893,
      "##icello": 5894,
      "Dues": 5895,
      "Israel": 5896,
      "Conticello": 5897,
      "Hence": 5898,
      "Newton": 5899,
      "Philip": 5900,
      "Capri": 5901,
      "Skylar": 5902,
      "Gosuke": 5903,
      "Natanael": 5904,
      "Shervy": 5905,
      "Lindow": 5906,
      "Chatwood": 5907,
      "McIntosh": 5908,
      "Vallimont": 5909,
      "Burrows": 5910,
      "Bolaños": 5911,
      "Dedelow": 5912,
      "Katoh": 5913,
      "Scull": 5914,
      "Tinoco": 5915,
      "Yurchak": 5916,
      "Marcheco": 5917,
      "Shervyen": 5918,
      "Bonta": 5919,
      "Fey": 5920,
      "Fine": 5921,
      "Povich": 5922,
      "Ral": 5923,
      "TW": 5924,
      "Ven": 5925,
      "WAY": 5926,
      "##aut": 5927,
      "PLAYER": 5928,
      "##riz": 5929,
      "##eziano": 5930,
      "Micker": 5931,
      "##ffo": 5932,
      "Armani": 5933,
      "Runner": 5934,
      "##aiker": 5935,
      "Rudd": 5936,
      "##ereisen": 5937,
      "Ronaiker": 5938,
      "Erlin": 5939,
      "Blackwood": 5940,
      "##baez": 5941,
      "##iaszek": 5942,
      "Adolfo": 5943,
      "Solis": 5944,
      "Urbaez": 5945,
      "Gorski": 5946,
      "Nail": 5947,
      "Misiaszek": 5948,
      "7069": 5949,
      "Labaut": 5950,
      "Graceffo": 5951,
      "Russell": 5952,
      "Feyereisen": 5953,
      "Fineas": 5954,
      "Ralph": 5955,
      "TWO": 5956,
      "Veneziano": 5957,
      "Cay": 5958,
      "Nord": 5959,
      "##ld": 5960,
      "##31": 5961,
      "##38": 5962,
      "##hara": 5963,
      "##ggins": 5964,
      "##erer": 5965,
      "##riese": 5966,
      "##aman": 5967,
      "Roed": 5968,
      "Andriese": 5969,
      "##roggins": 5970,
      "Sep": 5971,
      "Tyre": 5972,
      "Conine": 5973,
      "Lehman": 5974,
      "Blair": 5975,
      "Benny": 5976,
      "Morin": 5977,
      "Enoli": 5978,
      "Guld": 5979,
      "Kohei": 5980,
      "Winaker": 5981,
      "Arihara": 5982,
      "Yorke": 5983,
      "Dye": 5984,
      "Scroggins": 5985,
      "Cayden": 5986,
      "Nordlin": 5987,
      "Roederer": 5988,
      "Guldberg": 5989,
      "88": 5990,
      "Pu": 5991,
      "##lish": 5992,
      "##75": 5993,
      "##35": 5994,
      "##rich": 5995,
      "##elten": 5996,
      "##isky": 5997,
      "##stone": 5998,
      "Free": 5999,
      "##ahue": 6000,
      "##retti": 6001,
      "Dup": 6002,
      "Donahue": 6003,
      "Sammons": 6004,
      "Rubby": 6005,
      "Whitaker": 6006,
      "Johnstone": 6007,
      "Ern": 6008,
      "Semin": 6009,
      "Serretti": 6010,
      "Tristin": 6011,
      "Triana": 6012,
      "##denberger": 6013,
      "Snelten": 6014,
      "Senger": 6015,
      "Fergus": 6016,
      "Melton": 6017,
      "English": 6018,
      "##kenny": 6019,
      "Pennington": 6020,
      "Kilkenny": 6021,
      "Selman": 6022,
      "Packard": 6023,
      "##bnisky": 6024,
      "Zarbnisky": 6025,
      "Betances": 6026,
      "Hildenberger": 6027,
      "Godley": 6028,
      "Tyreque": 6029,
      "Puckett": 6030,
      "Ogans": 6031,
      "Tillo": 6032,
      "Yang": 6033,
      "##66": 6034,
      "##fert": 6035,
      "##igo": 6036,
      "##49": 6037,
      "##enger": 6038,
      "Juenger": 6039,
      "##cox": 6040,
      "##teen": 6041,
      "Antuna": 6042,
      "##gore": 6043,
      "Arment": 6044,
      "Wilcox": 6045,
      "Burne": 6046,
      "Duron": 6047,
      "Erub": 6048,
      "Indigo": 6049,
      "Alfonzo": 6050,
      "Oliva": 6051,
      "Yasel": 6052,
      "Amador": 6053,
      "Keylan": 6054,
      "Reifert": 6055,
      "Keshawn": 6056,
      "McSteen": 6057,
      "Chatham": 6058,
      "Willeman": 6059,
      "Killgore": 6060,
      "Nova": 6061,
      "Armenta": 6062,
      "Burnette": 6063,
      "Erubiel": 6064,
      "57": 6065,
      "Dw": 6066,
      "Oca": 6067,
      "Rad": 6068,
      "Venn": 6069,
      "Werner": 6070,
      "Zu": 6071,
      "##ci": 6072,
      "##cliff": 6073,
      "##sbel": 6074,
      "##dred": 6075,
      "##ñiga": 6076,
      "##ony": 6077,
      "##ary": 6078,
      "##elinger": 6079,
      "Stry": 6080,
      "Seag": 6081,
      "Seelinger": 6082,
      "##abres": 6083,
      "Conroy": 6084,
      "##ffeler": 6085,
      "Blak": 6086,
      "Laz": 6087,
      "##geri": 6088,
      "Barber": 6089,
      "Calabres": 6090,
      "Guillo": 6091,
      "Jacobsen": 6092,
      "Robbins": 6093,
      "Chirino": 6094,
      "Simas": 6095,
      "Silven": 6096,
      "Daysbel": 6097,
      "Alldred": 6098,
      "Malgeri": 6099,
      "Yoelvin": 6100,
      "Dipoto": 6101,
      "Sharpe": 6102,
      "Susac": 6103,
      "Lingos": 6104,
      "Dwight": 6105,
      "Radcliff": 6106,
      "Vennaro": 6107,
      "Zuñiga": 6108,
      "Stryffeler": 6109,
      "Seagle": 6110,
      "Blakely": 6111,
      "Calabrese": 6112,
      "Cach": 6113,
      "Hansen": 6114,
      "Wand": 6115,
      "Yam": 6116,
      "##lw": 6117,
      "##cel": 6118,
      "##80": 6119,
      "##21": 6120,
      "##ran": 6121,
      "##uemann": 6122,
      "##30": 6123,
      "##48": 6124,
      "##ja": 6125,
      "##ares": 6126,
      "##osbel": 6127,
      "Walston": 6128,
      "Sug": 6129,
      "Schuemann": 6130,
      "Rosier": 6131,
      "Grey": 6132,
      "Barre": 6133,
      "##bein": 6134,
      "Bleis": 6135,
      "Todd": 6136,
      "Skoug": 6137,
      "Bartlett": 6138,
      "Yeison": 6139,
      "##senbein": 6140,
      "Thorpe": 6141,
      "7070": 6142,
      "Diosbel": 6143,
      "McIlw": 6144,
      "Ochsenbein": 6145,
      "Cachutt": 6146,
      "Wandisson": 6147,
      "McIlwain": 6148,
      "Ane": 6149,
      "Gh": 6150,
      "Gren": 6151,
      "Kas": 6152,
      "PJ": 6153,
      "Pou": 6154,
      "Sin": 6155,
      "Tiro": 6156,
      "Yaya": 6157,
      "##bos": 6158,
      "##25": 6159,
      "##iven": 6160,
      "##47": 6161,
      "##gre": 6162,
      "##vel": 6163,
      "##veda": 6164,
      "##jan": 6165,
      "##aris": 6166,
      "##arena": 6167,
      "##elman": 6168,
      "##reidy": 6169,
      "##alves": 6170,
      "##ouf": 6171,
      "##stein": 6172,
      "Chent": 6173,
      "##ity": 6174,
      "Alford": 6175,
      "##ordy": 6176,
      "Reilly": 6177,
      "##tham": 6178,
      "Wetzel": 6179,
      "Negre": 6180,
      "##icoto": 6181,
      "Camarena": 6182,
      "Enright": 6183,
      "Ciuff": 6184,
      "Higgin": 6185,
      "Bericoto": 6186,
      "##ulveda": 6187,
      "Gonsalves": 6188,
      "##botham": 6189,
      "Fulton": 6190,
      "McGarity": 6191,
      "Dax": 6192,
      "Aponte": 6193,
      "Eckelman": 6194,
      "Ofreidy": 6195,
      "Cadyn": 6196,
      "Sepulveda": 6197,
      "Seminaris": 6198,
      "Aneurys": 6199,
      "Ghordy": 6200,
      "Grenier": 6201,
      "Poulin": 6202,
      "Tirotta": 6203,
      "Chentouf": 6204,
      "Negret": 6205,
      "Ciuffo": 6206,
      "Higginbotham": 6207,
      "Ding": 6208,
      "Dales": 6209,
      "In": 6210,
      "Izz": 6211,
      "Sed": 6212,
      "Tahn": 6213,
      "##aj": 6214,
      "##10": 6215,
      "##89": 6216,
      "##27": 6217,
      "##wi": 6218,
      "##arks": 6219,
      "Mick": 6220,
      "##berry": 6221,
      "##rain": 6222,
      "Dought": 6223,
      "##shaw": 6224,
      "Sparks": 6225,
      "Wilfredo": 6226,
      "Andrade": 6227,
      "Abel": 6228,
      "Colby": 6229,
      "Brenner": 6230,
      "Efrain": 6231,
      "Valerio": 6232,
      "Hanner": 6233,
      "Jorel": 6234,
      "Haskin": 6235,
      "Dingler": 6236,
      "Dalesandro": 6237,
      "Izzy": 6238,
      "Sedlock": 6239,
      "Tahnaj": 6240,
      "Doughty": 6241,
      "89": 6242,
      "Boni": 6243,
      "Den": 6244,
      "Dario": 6245,
      "Evel": 6246,
      "Kai": 6247,
      "Kitch": 6248,
      "Kwi": 6249,
      "Ota": 6250,
      "Pomar": 6251,
      "Saul": 6252,
      "Vill": 6253,
      "Vaun": 6254,
      "##20": 6255,
      "##oks": 6256,
      "##oine": 6257,
      "##facio": 6258,
      "##51": 6259,
      "##anie": 6260,
      "##alob": 6261,
      "##atkowski": 6262,
      "Garde": 6263,
      "Coker": 6264,
      "Breault": 6265,
      "Dewe": 6266,
      "Antoine": 6267,
      "Donnie": 6268,
      "Samanie": 6269,
      "Herb": 6270,
      "House": 6271,
      "Kingham": 6272,
      "Amburg": 6273,
      "Mejias": 6274,
      "Crooks": 6275,
      "Beeter": 6276,
      "Moller": 6277,
      "Fedko": 6278,
      "7485": 6279,
      "Stokes": 6280,
      "Bonifacio": 6281,
      "Kitchen": 6282,
      "Kwiatkowski": 6283,
      "Otañez": 6284,
      "Pomares": 6285,
      "Villalob": 6286,
      "Gardea": 6287,
      "Dewees": 6288,
      "Samaniego": 6289,
      "Amburgey": 6290,
      "Villalobos": 6291,
      "Bric": 6292,
      "Easley": 6293,
      "Ferner": 6294,
      "Ginn": 6295,
      "Howell": 6296,
      "Kor": 6297,
      "Lyle": 6298,
      "Nuto": 6299,
      "##73": 6300,
      "##81": 6301,
      "##ure": 6302,
      "##gner": 6303,
      "##jeda": 6304,
      "##lester": 6305,
      "Jayce": 6306,
      "##ttam": 6307,
      "##idert": 6308,
      "Cottam": 6309,
      "Shayne": 6310,
      "Spain": 6311,
      "Marconi": 6312,
      "Hoese": 6313,
      "Neidert": 6314,
      "Estiven": 6315,
      "Marshall": 6316,
      "Montilla": 6317,
      "Kenyon": 6318,
      "Espada": 6319,
      "Bergner": 6320,
      "McLough": 6321,
      "##brand": 6322,
      "Helman": 6323,
      "Helvey": 6324,
      "Raymond": 6325,
      "Emilker": 6326,
      "Adonis": 6327,
      "Ballester": 6328,
      "Yorvis": 6329,
      "Endrys": 6330,
      "Fontana": 6331,
      "Luna": 6332,
      "Eveld": 6333,
      "Briceno": 6334,
      "Fernery": 6335,
      "Korry": 6336,
      "Nutof": 6337,
      "McLoughlin": 6338,
      "Ballesteros": 6339,
      "Dash": 6340,
      "Hoo": 6341,
      "Hidal": 6342,
      "Lout": 6343,
      "Lay": 6344,
      "Vann": 6345,
      "##eker": 6346,
      "##col": 6347,
      "##orio": 6348,
      "##relle": 6349,
      "##fault": 6350,
      "##91": 6351,
      "##olis": 6352,
      "Bray": 6353,
      "##uro": 6354,
      "Garnett": 6355,
      "Deolis": 6356,
      "Trei": 6357,
      "Lincol": 6358,
      "Shuff": 6359,
      "##lihan": 6360,
      "Meeker": 6361,
      "Kellen": 6362,
      "Dufault": 6363,
      "Neely": 6364,
      "Orze": 6365,
      "Osorio": 6366,
      "Callihan": 6367,
      "Cancel": 6368,
      "Eduar": 6369,
      "Darrell": 6370,
      "Kubo": 6371,
      "Knack": 6372,
      "Trayson": 6373,
      "Arturo": 6374,
      "Wagaman": 6375,
      "Cantrelle": 6376,
      "Hickman": 6377,
      "Briggs": 6378,
      "Leyba": 6379,
      "Kasowski": 6380,
      "Dashwood": 6381,
      "Hoover": 6382,
      "Hidalgo": 6383,
      "Loutos": 6384,
      "Vannelle": 6385,
      "Lincoln": 6386,
      "Shuffield": 6387,
      "58": 6388,
      "Eier": 6389,
      "Gates": 6390,
      "Les": 6391,
      "Sik": 6392,
      "Vern": 6393,
      "Zinn": 6394,
      "##ender": 6395,
      "##lant": 6396,
      "##77": 6397,
      "##50": 6398,
      "##93": 6399,
      "##46": 6400,
      "##mú": 6401,
      "##ppen": 6402,
      "##ango": 6403,
      "##let": 6404,
      "##ndrick": 6405,
      "##kema": 6406,
      "Strow": 6407,
      "Gram": 6408,
      "##tter": 6409,
      "##berer": 6410,
      "##teet": 6411,
      "Ritter": 6412,
      "Mack": 6413,
      "##dys": 6414,
      "Rae": 6415,
      "Levere": 6416,
      "Arden": 6417,
      "Corniel": 6418,
      "##hendrick": 6419,
      "Haberer": 6420,
      "Ruppen": 6421,
      "Noe": 6422,
      "Salcedo": 6423,
      "Arodys": 6424,
      "Estep": 6425,
      "Yohendrick": 6426,
      "Pabst": 6427,
      "Bermú": 6428,
      "Ilvin": 6429,
      "Toerner": 6430,
      "Pinango": 6431,
      "Delvin": 6432,
      "Poteet": 6433,
      "Lavender": 6434,
      "Cerny": 6435,
      "Leasure": 6436,
      "Duplant": 6437,
      "Eierman": 6438,
      "Lescher": 6439,
      "Sikkema": 6440,
      "Strowd": 6441,
      "Grammes": 6442,
      "Leverett": 6443,
      "Ruppenthal": 6444,
      "Bermúdez": 6445,
      "Duplantier": 6446,
      "90": 6447,
      "Bil": 6448,
      "Cint": 6449,
      "Fenter": 6450,
      "Henz": 6451,
      "##los": 6452,
      "##11": 6453,
      "##78": 6454,
      "##72": 6455,
      "##33": 6456,
      "##reev": 6457,
      "##ous": 6458,
      "Brinson": 6459,
      "Jad": 6460,
      "##avilla": 6461,
      "Marlin": 6462,
      "##eden": 6463,
      "##carlos": 6464,
      "McGreev": 6465,
      "Altavilla": 6466,
      "Bernardo": 6467,
      "Chacin": 6468,
      "Jerez": 6469,
      "Jancarlos": 6470,
      "Scheffler": 6471,
      "Aldry": 6472,
      "Sadler": 6473,
      "Eduarqui": 6474,
      "Bilous": 6475,
      "Cintron": 6476,
      "Henzman": 6477,
      "McGreevy": 6478,
      "Kale": 6479,
      "Was": 6480,
      "##bkowski": 6481,
      "##cord": 6482,
      "##71": 6483,
      "##76": 6484,
      "##82": 6485,
      "##83": 6486,
      "##22": 6487,
      "##29": 6488,
      "##oby": 6489,
      "##fante": 6490,
      "##sue": 6491,
      "##dde": 6492,
      "##55": 6493,
      "##gg": 6494,
      "##gra": 6495,
      "##poso": 6496,
      "##Coby": 6497,
      "##rish": 6498,
      "##orf": 6499,
      "##ndorf": 6500,
      "##encourt": 6501,
      "##stit": 6502,
      "Brav": 6503,
      "##ambr": 6504,
      "Midde": 6505,
      "JaCoby": 6506,
      "Marquez": 6507,
      "Consue": 6508,
      "Raposo": 6509,
      "Shilling": 6510,
      "Record": 6511,
      "Restit": 6512,
      "Bladimir": 6513,
      "Lake": 6514,
      "Parrish": 6515,
      "Barrett": 6516,
      "Dombkowski": 6517,
      "Mujica": 6518,
      "Kober": 6519,
      "Emsho": 6520,
      "Giambr": 6521,
      "Bettencourt": 6522,
      "Batista": 6523,
      "Mikel": 6524,
      "##ummer": 6525,
      "Plummer": 6526,
      "Kapers": 6527,
      "Leonardo": 6528,
      "Bachar": 6529,
      "Krauth": 6530,
      "Hardy": 6531,
      "Brailyn": 6532,
      "Hasler": 6533,
      "Leasher": 6534,
      "Byrd": 6535,
      "##uyo": 6536,
      "Barreto": 6537,
      "Infante": 6538,
      "Washer": 6539,
      "Bravo": 6540,
      "Middendorf": 6541,
      "Consuegra": 6542,
      "Restituyo": 6543,
      "Emshoff": 6544,
      "Giambrone": 6545,
      "56": 6546,
      "Are": 6547,
      "Aler": 6548,
      "Eick": 6549,
      "Fitt": 6550,
      "Flow": 6551,
      "Iz": 6552,
      "Layne": 6553,
      "PK": 6554,
      "Powell": 6555,
      "Riddle": 6556,
      "Vaz": 6557,
      "Valencia": 6558,
      "Yos": 6559,
      "##lis": 6560,
      "##cazar": 6561,
      "##28": 6562,
      "##oa": 6563,
      "##oit": 6564,
      "##turis": 6565,
      "##34": 6566,
      "##ds": 6567,
      "##95": 6568,
      "##90": 6569,
      "##hoff": 6570,
      "##wu": 6571,
      "##aneda": 6572,
      "##inyer": 6573,
      "##aska": 6574,
      "Josue": 6575,
      "Roel": 6576,
      "Aleman": 6577,
      "##itez": 6578,
      "Alaska": 6579,
      "Carrillo": 6580,
      "Huma": 6581,
      "Castaneda": 6582,
      "Abney": 6583,
      "Bugg": 6584,
      "Benoit": 6585,
      "Benitez": 6586,
      "Hamel": 6587,
      "Frainyer": 6588,
      "Brentz": 6589,
      "##ollard": 6590,
      "Olczak": 6591,
      "Olds": 6592,
      "Morillo": 6593,
      "Albright": 6594,
      "Broom": 6595,
      "##ddard": 6596,
      "##inamo": 6597,
      "Mendlinger": 6598,
      "Jerad": 6599,
      "##larie": 6600,
      "Goddard": 6601,
      "Soularie": 6602,
      "Balcazar": 6603,
      "Groen": 6604,
      "Huntley": 6605,
      "Sterlin": 6606,
      "Rolddy": 6607,
      "Vernon": 6608,
      "Raeth": 6609,
      "Jadher": 6610,
      "Areinamo": 6611,
      "Alerick": 6612,
      "Eickhoff": 6613,
      "Fitts": 6614,
      "Flowers": 6615,
      "Izturis": 6616,
      "Court": 6617,
      "Dos": 6618,
      "Haz": 6619,
      "JD": 6620,
      "Jass": 6621,
      "Jenn": 6622,
      "Klo": 6623,
      "Lutz": 6624,
      "Op": 6625,
      "Zul": 6626,
      "##eke": 6627,
      "##baugh": 6628,
      "##ni": 6629,
      "##19": 6630,
      "##23": 6631,
      "##uri": 6632,
      "##36": 6633,
      "##dey": 6634,
      "##57": 6635,
      "##hart": 6636,
      "##gor": 6637,
      "##kar": 6638,
      "##kinger": 6639,
      "##vacio": 6640,
      "##Gre": 6641,
      "##innes": 6642,
      "##enstein": 6643,
      "##avetz": 6644,
      "Mata": 6645,
      "Cowart": 6646,
      "Davila": 6647,
      "Edwu": 6648,
      "##ffenstein": 6649,
      "Remy": 6650,
      "Regin": 6651,
      "##lison": 6652,
      "Loep": 6653,
      "Gervacio": 6654,
      "Bencom": 6655,
      "Parke": 6656,
      "Calvo": 6657,
      "Ellison": 6658,
      "Whiteman": 6659,
      "##artz": 6660,
      "Tristen": 6661,
      "Teter": 6662,
      "Schwartz": 6663,
      "Hermann": 6664,
      "Hammer": 6665,
      "McGinnes": 6666,
      "Kumar": 6667,
      "Rowdey": 6668,
      "Cushing": 6669,
      "Loseke": 6670,
      "MacGre": 6671,
      "Terence": 6672,
      "Yeury": 6673,
      "Magno": 6674,
      "Olivero": 6675,
      "Chacon": 6676,
      "Jamison": 6677,
      "Preci": 6678,
      "Workinger": 6679,
      "Stambaugh": 6680,
      "Deyni": 6681,
      "Ange": 6682,
      "##ueta": 6683,
      "Jefry": 6684,
      "Cantu": 6685,
      "Sharp": 6686,
      "Kravetz": 6687,
      "Roldani": 6688,
      "Schwecke": 6689,
      "Large": 6690,
      "Braydon": 6691,
      "Yosver": 6692,
      "Courtney": 6693,
      "Doston": 6694,
      "Jasseel": 6695,
      "Jennings": 6696,
      "Kloffenstein": 6697,
      "Zulueta": 6698,
      "Edwuin": 6699,
      "Reginald": 6700,
      "Loeprich": 6701,
      "Bencomo": 6702,
      "McGinness": 6703,
      "MacGregor": 6704,
      "Preciado": 6705,
      "As": 6706,
      "Bash": 6707,
      "Ca": 6708,
      "Dil": 6709,
      "Nig": 6710,
      "On": 6711,
      "Pel": 6712,
      "##brey": 6713,
      "##añ": 6714,
      "##18": 6715,
      "##79": 6716,
      "##74": 6717,
      "##88": 6718,
      "##26": 6719,
      "##00": 6720,
      "##halter": 6721,
      "##khalter": 6722,
      "##zart": 6723,
      "##jahn": 6724,
      "##alin": 6725,
      "##enle": 6726,
      "Cozart": 6727,
      "Mabrey": 6728,
      "Thames": 6729,
      "##shee": 6730,
      "Shalin": 6731,
      "Castañ": 6732,
      "Negue": 6733,
      "Burkhalter": 6734,
      "Hampton": 6735,
      "Owens": 6736,
      "Floyd": 6737,
      "Schoenle": 6738,
      "Bice": 6739,
      "Dunshee": 6740,
      "##ferjahn": 6741,
      "Zeferjahn": 6742,
      "Wolforth": 6743,
      "Byrne": 6744,
      "Martorella": 6745,
      "Nigro": 6746,
      "Castañon": 6747,
      "Negueis": 6748,
      "Flin": 6749,
      "Id": 6750,
      "Pome": 6751,
      "Pastr": 6752,
      "Rine": 6753,
      "Sag": 6754,
      "Yh": 6755,
      "##eison": 6756,
      "##brow": 6757,
      "##lain": 6758,
      "##15": 6759,
      "##14": 6760,
      "##84": 6761,
      "##24": 6762,
      "##und": 6763,
      "##58": 6764,
      "##09": 6765,
      "##hian": 6766,
      "##Chi": 6767,
      "##rios": 6768,
      "##reale": 6769,
      "##stana": 6770,
      "Roach": 6771,
      "##rogo": 6772,
      "Perry": 6773,
      "Danner": 6774,
      "Pestana": 6775,
      "Beasley": 6776,
      "Morreale": 6777,
      "Barrios": 6778,
      "Colson": 6779,
      "Elledge": 6780,
      "Rushing": 6781,
      "Olsen": 6782,
      "Dodson": 6783,
      "Cristhian": 6784,
      "##gese": 6785,
      "Darien": 6786,
      "Houston": 6787,
      "Bergl": 6788,
      "Clementina": 6789,
      "Hendrik": 6790,
      "Souza": 6791,
      "Dayeison": 6792,
      "Zebrow": 6793,
      "Didier": 6794,
      "DiChi": 6795,
      "Braeden": 6796,
      "##udis": 6797,
      "Ogle": 6798,
      "##ranz": 6799,
      "Flint": 6800,
      "Idrogo": 6801,
      "Pomeranz": 6802,
      "Rinehart": 6803,
      "Saggese": 6804,
      "Berglund": 6805,
      "Zebrowski": 6806,
      "DiChiara": 6807,
      "55": 6808,
      "54": 6809,
      "Kriz": 6810,
      "Liendo": 6811,
      "Pain": 6812,
      "##bram": 6813,
      "##17": 6814,
      "##iez": 6815,
      "##56": 6816,
      "##92": 6817,
      "##vic": 6818,
      "##aser": 6819,
      "##olitt": 6820,
      "Marge": 6821,
      "Marria": 6822,
      "Breaux": 6823,
      "Fraser": 6824,
      "Boone": 6825,
      "Abiez": 6826,
      "Dum": 6827,
      "Iser": 6828,
      "Whitney": 6829,
      "Erwin": 6830,
      "Semple": 6831,
      "Doolitt": 6832,
      "Herbert": 6833,
      "##moth": 6834,
      "Morit": 6835,
      "Curlis": 6836,
      "Dalvy": 6837,
      "Myatt": 6838,
      "Junker": 6839,
      "Ahbram": 6840,
      "Abrahan": 6841,
      "Warmoth": 6842,
      "Ellard": 6843,
      "Messinger": 6844,
      "Naswell": 6845,
      "Crouse": 6846,
      "Krizan": 6847,
      "Painter": 6848,
      "##vicius": 6849,
      "Margevicius": 6850,
      "Marriaga": 6851,
      "Abiezel": 6852,
      "Doolittle": 6853,
      "Moritz": 6854,
      "Baldonado": 6855,
      "Clen": 6856,
      "Cuth": 6857,
      "Emer": 6858,
      "Jommer": 6859,
      "Kh": 6860,
      "Ljay": 6861,
      "Lieb": 6862,
      "Say": 6863,
      "Sang": 6864,
      "Von": 6865,
      "##aki": 6866,
      "##12": 6867,
      "##86": 6868,
      "##some": 6869,
      "##ibrand": 6870,
      "##52": 6871,
      "##53": 6872,
      "##59": 6873,
      "##54": 6874,
      "##96": 6875,
      "##98": 6876,
      "##hies": 6877,
      "Sterner": 6878,
      "Starr": 6879,
      "##alil": 6880,
      "Ches": 6881,
      "Chamber": 6882,
      "##adney": 6883,
      "Matthies": 6884,
      "##astey": 6885,
      "##abio": 6886,
      "Leibrand": 6887,
      "##vene": 6888,
      "Whalen": 6889,
      "##oneit": 6890,
      "Hamlet": 6891,
      "Menez": 6892,
      "Yordany": 6893,
      "Newsome": 6894,
      "Teller": 6895,
      "Simoneit": 6896,
      "Polley": 6897,
      "Campero": 6898,
      "Warner": 6899,
      "##oangel": 6900,
      "Gladney": 6901,
      "DeLabio": 6902,
      "McAvene": 6903,
      "Jacen": 6904,
      "Gustavo": 6905,
      "Winkel": 6906,
      "Sugastey": 6907,
      "Denlinger": 6908,
      "Yhoangel": 6909,
      "Clenney": 6910,
      "Cuthbert": 6911,
      "Emery": 6912,
      "Khalil": 6913,
      "Liebano": 6914,
      "Sayre": 6915,
      "Cheslor": 6916,
      "Chamberlain": 6917,
      "Matthiessen": 6918,
      "Leibrandt": 6919,
      "Kah": 6920,
      "##16": 6921,
      "##13": 6922,
      "##uh": 6923,
      "##32": 6924,
      "##diel": 6925,
      "##iñez": 6926,
      "##ikes": 6927,
      "##99": 6928,
      "##94": 6929,
      "##kew": 6930,
      "##chth": 6931,
      "##ezer": 6932,
      "##olz": 6933,
      "Braun": 6934,
      "Rocker": 6935,
      "Mariñez": 6936,
      "Adael": 6937,
      "Devere": 6938,
      "Mazz": 6939,
      "Edry": 6940,
      "Spikes": 6941,
      "Reind": 6942,
      "##carra": 6943,
      "Abdiel": 6944,
      "##verde": 6945,
      "Griep": 6946,
      "Barstad": 6947,
      "Colmen": 6948,
      "Danielak": 6949,
      "Hendrie": 6950,
      "Eliezer": 6951,
      "Yujan": 6952,
      "Herard": 6953,
      "Salow": 6954,
      "Schwarz": 6955,
      "Villarreal": 6956,
      "Fluh": 6957,
      "Yeiner": 6958,
      "Keyshaw": 6959,
      "Valverde": 6960,
      "Tolve": 6961,
      "Gusto": 6962,
      "Wolfram": 6963,
      "Schlichth": 6964,
      "Askew": 6965,
      "Kahle": 6966,
      "Braunny": 6967,
      "Devereaux": 6968,
      "Mazza": 6969,
      "Edryn": 6970,
      "Reindl": 6971,
      "Yujanyer": 6972,
      "Fluharty": 6973,
      "Keyshawn": 6974,
      "Schlichtholz": 6975,
      "91": 6976,
      "Dai": 6977,
      "Dollard": 6978,
      "Fas": 6979,
      "Kath": 6980,
      "Nastr": 6981,
      "Raul": 6982,
      "Tav": 6983,
      "Ugu": 6984,
      "##lham": 6985,
      "##ozzi": 6986,
      "##uary": 6987,
      "##sly": 6988,
      "##05": 6989,
      "##97": 6990,
      "##olini": 6991,
      "##amoto": 6992,
      "##omy": 6993,
      "Carey": 6994,
      "Cobos": 6995,
      "Franny": 6996,
      "Suozzi": 6997,
      "McColl": 6998,
      "Bec": 6999,
      "Bear": 7000,
      "Brigman": 7001,
      "Bellomy": 7002,
      "Whitt": 7003,
      "Durango": 7004,
      "Tejada": 7005,
      "Sandle": 7006,
      "##arnway": 7007,
      "Mojica": 7008,
      "Callahan": 7009,
      "Ambio": 7010,
      "Bernie": 7011,
      "Tayden": 7012,
      "Beckham": 7013,
      "Lavarnway": 7014,
      "Paplham": 7015,
      "Paolini": 7016,
      "January": 7017,
      "Micael": 7018,
      "Lindsly": 7019,
      "Odal": 7020,
      "Welch": 7021,
      "Geoffrey": 7022,
      "Yamamoto": 7023,
      "Layer": 7024,
      "Hamels": 7025,
      "Daison": 7026,
      "Fascia": 7027,
      "Nastrini": 7028,
      "Tavarez": 7029,
      "Ugueto": 7030,
      "McCollum": 7031,
      "Ambioris": 7032,
      "Ever": 7033,
      "Funk": 7034,
      "Hau": 7035,
      "Ino": 7036,
      "Pan": 7037,
      "Wu": 7038,
      "##tre": 7039,
      "##iris": 7040,
      "##06": 7041,
      "##07": 7042,
      "##03": 7043,
      "##mieu": 7044,
      "##pper": 7045,
      "##erlin": 7046,
      "##elwood": 7047,
      "##alvo": 7048,
      "##ost": 7049,
      "Brann": 7050,
      "##itzer": 7051,
      "##iagua": 7052,
      "Aderlin": 7053,
      "Depper": 7054,
      "Lemieu": 7055,
      "##hett": 7056,
      "Osiris": 7057,
      "Richmond": 7058,
      "Tetre": 7059,
      "Montalvo": 7060,
      "Yoander": 7061,
      "Alfredo": 7062,
      "##houser": 7063,
      "Segal": 7064,
      "##marr": 7065,
      "Terrell": 7066,
      "Termarr": 7067,
      "##clair": 7068,
      "Vega": 7069,
      "Reiva": 7070,
      "Vanasco": 7071,
      "Horta": 7072,
      "Stauss": 7073,
      "Viandel": 7074,
      "Kadon": 7075,
      "Lunn": 7076,
      "Schweitzer": 7077,
      "Crouch": 7078,
      "Sinclair": 7079,
      "Hazelwood": 7080,
      "Opitz": 7081,
      "Onix": 7082,
      "Everhett": 7083,
      "Funkhouser": 7084,
      "Inohan": 7085,
      "Paniagua": 7086,
      "Deppermann": 7087,
      "Lemieux": 7088,
      "Tetreault": 7089,
      "Reivaj": 7090,
      "52": 7091,
      "53": 7092,
      "Aver": 7093,
      "Bel": 7094,
      "Bey": 7095,
      "Gam": 7096,
      "Gaston": 7097,
      "Kle": 7098,
      "Nes": 7099,
      "Ocker": 7100,
      "Pid": 7101,
      "Pres": 7102,
      "Pass": 7103,
      "Rid": 7104,
      "##lony": 7105,
      "##cen": 7106,
      "##iar": 7107,
      "##08": 7108,
      "##02": 7109,
      "##04": 7110,
      "##hield": 7111,
      "##gowski": 7112,
      "##kcy": 7113,
      "##ímed": 7114,
      "##úl": 7115,
      "Stand": 7116,
      "Stash": 7117,
      "##asburg": 7118,
      "##enaugh": 7119,
      "##stam": 7120,
      "Brzy": 7121,
      "##robel": 7122,
      "##ceo": 7123,
      "##raga": 7124,
      "##químed": 7125,
      "Mautz": 7126,
      "Maceo": 7127,
      "Raúl": 7128,
      "Arquímed": 7129,
      "##acki": 7130,
      "Cort": 7131,
      "Brycen": 7132,
      "Beers": 7133,
      "Bustam": 7134,
      "Morrobel": 7135,
      "##lesky": 7136,
      "Solesky": 7137,
      "Nogowski": 7138,
      "Erro": 7139,
      "Strasburg": 7140,
      "Cavenaugh": 7141,
      "Myrick": 7142,
      "Knarr": 7143,
      "Delino": 7144,
      "Shortridge": 7145,
      "Milacki": 7146,
      "Terrero": 7147,
      "##boa": 7148,
      "Reagan": 7149,
      "DeShield": 7150,
      "Jordy": 7151,
      "Yorman": 7152,
      "Zarraga": 7153,
      "Hauver": 7154,
      "Brannigan": 7155,
      "Avery": 7156,
      "Gamboa": 7157,
      "Klein": 7158,
      "Neslony": 7159,
      "Pidich": 7160,
      "Passantino": 7161,
      "Ridings": 7162,
      "Standlee": 7163,
      "Stashak": 7164,
      "Brzykcy": 7165,
      "Arquímedes": 7166,
      "Bustamante": 7167,
      "DeShields": 7168,
      "Agos": 7169,
      "Creal": 7170,
      "Dat": 7171,
      "Des": 7172,
      "Nah": 7173,
      "Pint": 7174,
      "Try": 7175,
      "Vriel": 7176,
      "Zak": 7177,
      "##balta": 7178,
      "##tini": 7179,
      "##dit": 7180,
      "##iam": 7181,
      "##01": 7182,
      "##gey": 7183,
      "##xer": 7184,
      "##lear": 7185,
      "##rias": 7186,
      "##elford": 7187,
      "##nders": 7188,
      "##champs": 7189,
      "##enthal": 7190,
      "##stan": 7191,
      "Jayle": 7192,
      "Demu": 7193,
      "Ribalta": 7194,
      "Shoo": 7195,
      "Shack": 7196,
      "Lexer": 7197,
      "Schilling": 7198,
      "Rosenthal": 7199,
      "Geraldi": 7200,
      "Barley": 7201,
      "Mundy": 7202,
      "Palmer": 7203,
      "##brell": 7204,
      "Amdit": 7205,
      "Antonini": 7206,
      "Saunders": 7207,
      "Allgey": 7208,
      "Dibrell": 7209,
      "Saduy": 7210,
      "Locklear": 7211,
      "Ernst": 7212,
      "Odalvi": 7213,
      "Agostini": 7214,
      "Datres": 7215,
      "Deschamps": 7216,
      "Nahas": 7217,
      "Trystan": 7218,
      "Vrieling": 7219,
      "Jaylen": 7220,
      "Demurias": 7221,
      "Shook": 7222,
      "Shackelford": 7223,
      "Amditis": 7224,
      "Allgeyer": 7225,
      "Boss": 7226,
      "Hurt": 7227,
      "Las": 7228,
      "Malm": 7229,
      "RJ": 7230,
      "Scer": 7231,
      "##oke": 7232,
      "##drys": 7233,
      "##ift": 7234,
      "##anillo": 7235,
      "##erpe": 7236,
      "Granillo": 7237,
      "##oler": 7238,
      "Roth": 7239,
      "##eyta": 7240,
      "Garne": 7241,
      "Cooke": 7242,
      "Mahan": 7243,
      "Manon": 7244,
      "Toman": 7245,
      "Abeyta": 7246,
      "Osiel": 7247,
      "McMillon": 7248,
      "Esc": 7249,
      "Escarra": 7250,
      "Petit": 7251,
      "Eudrys": 7252,
      "Robson": 7253,
      "##house": 7254,
      "Holiday": 7255,
      "Blane": 7256,
      "Swift": 7257,
      "Hjerpe": 7258,
      "Gilliam": 7259,
      "Euribiel": 7260,
      "Hemmanuel": 7261,
      "Mosquera": 7262,
      "Willems": 7263,
      "Martorano": 7264,
      "Angeles": 7265,
      "Pastrano": 7266,
      "Bossard": 7267,
      "Laskey": 7268,
      "Sceroler": 7269,
      "Garneau": 7270,
      "Ban": 7271,
      "CD": 7272,
      "Cre": 7273,
      "Cop": 7274,
      "Cus": 7275,
      "Jerson": 7276,
      "Nad": 7277,
      "Pur": 7278,
      "Sommer": 7279,
      "Zane": 7280,
      "##ru": 7281,
      "##xon": 7282,
      "##anick": 7283,
      "##aniel": 7284,
      "##ating": 7285,
      "##isch": 7286,
      "##stod": 7287,
      "Jauri": 7288,
      "Rock": 7289,
      "Jud": 7290,
      "Keating": 7291,
      "Eder": 7292,
      "##acke": 7293,
      "Spacke": 7294,
      "Jarrett": 7295,
      "Buch": 7296,
      "Elko": 7297,
      "Guilar": 7298,
      "Giles": 7299,
      "Lawson": 7300,
      "Palisch": 7301,
      "Esplin": 7302,
      "Errol": 7303,
      "Olivo": 7304,
      "Custod": 7305,
      "Jordi": 7306,
      "6611": 7307,
      "6619": 7308,
      "6628": 7309,
      "Gillies": 7310,
      "McDaniel": 7311,
      "7068": 7312,
      "Deivis": 7313,
      "Frisbee": 7314,
      "Kranick": 7315,
      "Pelham": 7316,
      "Banfield": 7317,
      "Cope": 7318,
      "Cusick": 7319,
      "Nadal": 7320,
      "Purroy": 7321,
      "Guilarte": 7322,
      "Custodio": 7323,
      "Walking": 7324,
      "Bay": 7325,
      "Cald": 7326,
      "Deno": 7327,
      "Fi": 7328,
      "Fristo": 7329,
      "Gov": 7330,
      "Love": 7331,
      "Mé": 7332,
      "Pant": 7333,
      "Sano": 7334,
      "Zion": 7335,
      "##bus": 7336,
      "##oja": 7337,
      "##tle": 7338,
      "##jarez": 7339,
      "##inas": 7340,
      "Rooney": 7341,
      "Shaun": 7342,
      "Rambus": 7343,
      "Freudis": 7344,
      "Wilfri": 7345,
      "##reys": 7346,
      "##phreys": 7347,
      "Ordon": 7348,
      "Osik": 7349,
      "##less": 7350,
      "Mundo": 7351,
      "Ema": 7352,
      "Tejeda": 7353,
      "Salinas": 7354,
      "Battle": 7355,
      "Robel": 7356,
      "##elace": 7357,
      "Minjarez": 7358,
      "Humphreys": 7359,
      "Keyber": 7360,
      "Chavers": 7361,
      "Lavey": 7362,
      "Bannister": 7363,
      "Lovelace": 7364,
      "Yorvin": 7365,
      "Windish": 7366,
      "Ernny": 7367,
      "Whitten": 7368,
      "Bayless": 7369,
      "Denoyer": 7370,
      "Fristoe": 7371,
      "Govern": 7372,
      "Méndez": 7373,
      "Pantoja": 7374,
      "Sanoja": 7375,
      "Rambusch": 7376,
      "Ordonez": 7377,
      "92": 7378,
      "Dri": 7379,
      "Frick": 7380,
      "Pilar": 7381,
      "Sout": 7382,
      "Sib": 7383,
      "Yn": 7384,
      "##ett": 7385,
      "##ece": 7386,
      "##aid": 7387,
      "##fel": 7388,
      "##yard": 7389,
      "##hard": 7390,
      "##pan": 7391,
      "##inen": 7392,
      "##infel": 7393,
      "##righ": 7394,
      "Che": 7395,
      "Chaney": 7396,
      "Chaid": 7397,
      "##ttler": 7398,
      "##manol": 7399,
      "##its": 7400,
      "Alden": 7401,
      "Treinen": 7402,
      "Willits": 7403,
      "##ffer": 7404,
      "Danyer": 7405,
      "Arrigh": 7406,
      "Reece": 7407,
      "Maxwell": 7408,
      "Collett": 7409,
      "Renny": 7410,
      "Timpan": 7411,
      "Richi": 7412,
      "Devonte": 7413,
      "Walling": 7414,
      "Mooney": 7415,
      "Vinyard": 7416,
      "Aguiar": 7417,
      "Schreffler": 7418,
      "Bivens": 7419,
      "Emiliani": 7420,
      "Karson": 7421,
      "Engelmann": 7422,
      "Diomar": 7423,
      "Ochoa": 7424,
      "Killam": 7425,
      "Linginfel": 7426,
      "Eckberg": 7427,
      "Leyva": 7428,
      "Winkler": 7429,
      "Schlittler": 7430,
      "Figu": 7431,
      "Pilarski": 7432,
      "Southard": 7433,
      "Sibrian": 7434,
      "Ynmanol": 7435,
      "##etti": 7436,
      "Chaidez": 7437,
      "Aldenis": 7438,
      "Arrighetti": 7439,
      "Timpanelli": 7440,
      "Linginfelter": 7441,
      "51": 7442,
      "Fan": 7443,
      "Hic": 7444,
      "Izar": 7445,
      "Jase": 7446,
      "Kli": 7447,
      "Sas": 7448,
      "##ea": 7449,
      "##lie": 7450,
      "##coni": 7451,
      "##uddy": 7452,
      "##fern": 7453,
      "##ivor": 7454,
      "##rigan": 7455,
      "##elvas": 7456,
      "##elky": 7457,
      "##orche": 7458,
      "Stivor": 7459,
      "##asia": 7460,
      "##ismar": 7461,
      "Roismar": 7462,
      "##avers": 7463,
      "##berea": 7464,
      "Keone": 7465,
      "Alston": 7466,
      "Garvin": 7467,
      "Caracc": 7468,
      "##quint": 7469,
      "Freuddy": 7470,
      "Beavers": 7471,
      "Turconi": 7472,
      "Kela": 7473,
      "Buelvas": 7474,
      "Veras": 7475,
      "##ansky": 7476,
      "Holt": 7477,
      "Pina": 7478,
      "Sanquint": 7479,
      "Joelvis": 7480,
      "##iorowski": 7481,
      "Wylie": 7482,
      "Bowen": 7483,
      "Kerrigan": 7484,
      "Vance": 7485,
      "Swanda": 7486,
      "Misiorowski": 7487,
      "Hartman": 7488,
      "6620": 7489,
      "Nicasia": 7490,
      "Anfern": 7491,
      "Lockwood": 7492,
      "Zarate": 7493,
      "Wielansky": 7494,
      "Ofelky": 7495,
      "Ogando": 7496,
      "Caberea": 7497,
      "Dilson": 7498,
      "Belge": 7499,
      "Escorche": 7500,
      "Figuera": 7501,
      "Fanas": 7502,
      "Hickey": 7503,
      "Izarra": 7504,
      "Sasaki": 7505,
      "Stivors": 7506,
      "Caracci": 7507,
      "Sanquintin": 7508,
      "Anfernee": 7509,
      "Dio": 7510,
      "Gerson": 7511,
      "Gai": 7512,
      "Hood": 7513,
      "Lloy": 7514,
      "Pav": 7515,
      "Pale": 7516,
      "Plan": 7517,
      "TT": 7518,
      "Tra": 7519,
      "Uli": 7520,
      "Wladimir": 7521,
      "##ylin": 7522,
      "##yet": 7523,
      "##wait": 7524,
      "##eron": 7525,
      "##eres": 7526,
      "##ckley": 7527,
      "Grull": 7528,
      "##olony": 7529,
      "Miedn": 7530,
      "##roth": 7531,
      "Almen": 7532,
      "##idroth": 7533,
      "Maick": 7534,
      "Thwait": 7535,
      "Pope": 7536,
      "Rodder": 7537,
      "Freylin": 7538,
      "Jett": 7539,
      "Wilman": 7540,
      "Monke": 7541,
      "Rosoff": 7542,
      "Belen": 7543,
      "Meidroth": 7544,
      "Burges": 7545,
      "Shockley": 7546,
      "Vela": 7547,
      "Heribert": 7548,
      "##genes": 7549,
      "Castellani": 7550,
      "Mock": 7551,
      "Palum": 7552,
      "Clark": 7553,
      "Bermu": 7554,
      "Minyet": 7555,
      "##nsky": 7556,
      "Melvi": 7557,
      "Bowens": 7558,
      "Mathisen": 7559,
      "Collado": 7560,
      "Goins": 7561,
      "Deivy": 7562,
      "Yorlin": 7563,
      "Torii": 7564,
      "Caden": 7565,
      "Buchberger": 7566,
      "Calderon": 7567,
      "Diogenes": 7568,
      "Gaige": 7569,
      "Lloyd": 7570,
      "Pavolony": 7571,
      "Palensky": 7572,
      "Ulices": 7573,
      "Grullón": 7574,
      "Miednik": 7575,
      "Almengo": 7576,
      "Thwaits": 7577,
      "Roddery": 7578,
      "Burgess": 7579,
      "Heriberto": 7580,
      "Palumbo": 7581,
      "Bermudez": 7582,
      "Minyety": 7583,
      "50": 7584,
      "Av": 7585,
      "Brick": 7586,
      "Lutt": 7587,
      "Ojeda": 7588,
      "Piott": 7589,
      "Wo": 7590,
      "Yahn": 7591,
      "ai": 7592,
      "##eir": 7593,
      "##aff": 7594,
      "##nn": 7595,
      "##nara": 7596,
      "##cos": 7597,
      "##cie": 7598,
      "##iger": 7599,
      "##galla": 7600,
      "##jcie": 7601,
      "##anino": 7602,
      "##alt": 7603,
      "##chowski": 7604,
      "##chbach": 7605,
      "Graff": 7606,
      "##andol": 7607,
      "Cheney": 7608,
      "Rogalla": 7609,
      "Flynn": 7610,
      "##itia": 7611,
      "Seise": 7612,
      "Cobie": 7613,
      "Steiger": 7614,
      "Fredy": 7615,
      "Freder": 7616,
      "##icano": 7617,
      "Rose": 7618,
      "Rosman": 7619,
      "##aika": 7620,
      "Bencos": 7621,
      "Mora": 7622,
      "##zzle": 7623,
      "##ynxon": 7624,
      "Burch": 7625,
      "Elian": 7626,
      "Brenden": 7627,
      "Shore": 7628,
      "Guy": 7629,
      "##aughlin": 7630,
      "Oswalt": 7631,
      "Asher": 7632,
      "McLaughlin": 7633,
      "Mejicano": 7634,
      "Campana": 7635,
      "Medeir": 7636,
      "Jhost": 7637,
      "Mullen": 7638,
      "Payne": 7639,
      "Rhylan": 7640,
      "Adony": 7641,
      "Dreyer": 7642,
      "Konner": 7643,
      "Bolte": 7644,
      "6613": 7645,
      "Valle": 7646,
      "Valaika": 7647,
      "Yorberto": 7648,
      "Fabriz": 7649,
      "Barroso": 7650,
      "Yohander": 7651,
      "Daschbach": 7652,
      "Susnara": 7653,
      "Yovanny": 7654,
      "Beycker": 7655,
      "Rothenberg": 7656,
      "Drizzle": 7657,
      "Avitia": 7658,
      "Brickhouse": 7659,
      "Luttrell": 7660,
      "Piotto": 7661,
      "Wojcie": 7662,
      "Graffanino": 7663,
      "Frederick": 7664,
      "Bencosme": 7665,
      "Medeiros": 7666,
      "Jhostynxon": 7667,
      "Fabrizio": 7668,
      "Wojciechowski": 7669,
      "93": 7670,
      "Bon": 7671,
      "Bold": 7672,
      "Bies": 7673,
      "Hind": 7674,
      "Kings": 7675,
      "Ov": 7676,
      "Uhl": 7677,
      "##eary": 7678,
      "##bury": 7679,
      "##bster": 7680,
      "##sis": 7681,
      "##riola": 7682,
      "##alles": 7683,
      "##ayron": 7684,
      "Mariot": 7685,
      "Garriola": 7686,
      "##idel": 7687,
      "Thayron": 7688,
      "Rece": 7689,
      "Jeans": 7690,
      "Loidel": 7691,
      "Webster": 7692,
      "Haydn": 7693,
      "Neft": 7694,
      "Markel": 7695,
      "Geus": 7696,
      "Galiz": 7697,
      "Quiri": 7698,
      "Chapelli": 7699,
      "McGeary": 7700,
      "Curpa": 7701,
      "Newell": 7702,
      "Speas": 7703,
      "6615": 7704,
      "Janczak": 7705,
      "Cantillo": 7706,
      "Gotsis": 7707,
      "Draper": 7708,
      "Creed": 7709,
      "Bonilla": 7710,
      "Boldt": 7711,
      "Hinds": 7712,
      "Kingsbury": 7713,
      "Ovalles": 7714,
      "Neftali": 7715,
      "Quirion": 7716,
      "Bour": 7717,
      "Bair": 7718,
      "Phans": 7719,
      "Six": 7720,
      "Vale": 7721,
      "Wen": 7722,
      "##buch": 7723,
      "##aan": 7724,
      "##nar": 7725,
      "##ulo": 7726,
      "##zina": 7727,
      "##pf": 7728,
      "##alkar": 7729,
      "Matulo": 7730,
      "Mattison": 7731,
      "Linares": 7732,
      "Edmond": 7733,
      "##acola": 7734,
      "Arru": 7735,
      "Rodney": 7736,
      "Freed": 7737,
      "Lazar": 7738,
      "Hock": 7739,
      "Henyer": 7740,
      "Strong": 7741,
      "Fernander": 7742,
      "Sprink": 7743,
      "Tribuch": 7744,
      "Bergen": 7745,
      "Sheaffer": 7746,
      "Brody": 7747,
      "Minnick": 7748,
      "Straton": 7749,
      "Podar": 7750,
      "Stefen": 7751,
      "Payano": 7752,
      "Molnar": 7753,
      "6612": 7754,
      "6622": 7755,
      "Americaan": 7756,
      "Prizina": 7757,
      "Connell": 7758,
      "Larkin": 7759,
      "Yamal": 7760,
      "Sinacola": 7761,
      "Colmenarez": 7762,
      "Bourque": 7763,
      "Baird": 7764,
      "Phansalkar": 7765,
      "Sixto": 7766,
      "Valent": 7767,
      "Wenson": 7768,
      "Matulovich": 7769,
      "Arruda": 7770,
      "Lazaro": 7771,
      "Sprinkle": 7772,
      "Tribucher": 7773,
      "Podaras": 7774,
      "48": 7775,
      "Ay": 7776,
      "Bjay": 7777,
      "Card": 7778,
      "Dillan": 7779,
      "Hass": 7780,
      "Ike": 7781,
      "Kuz": 7782,
      "Landy": 7783,
      "Moss": 7784,
      "Puch": 7785,
      "Rout": 7786,
      "Uz": 7787,
      "Won": 7788,
      "##eu": 7789,
      "##bat": 7790,
      "##uez": 7791,
      "##gden": 7792,
      "##zi": 7793,
      "##zahn": 7794,
      "##velo": 7795,
      "##pken": 7796,
      "##inberg": 7797,
      "##leberry": 7798,
      "##ndry": 7799,
      "##aly": 7800,
      "##osby": 7801,
      "##ati": 7802,
      "##athon": 7803,
      "##adares": 7804,
      "##roel": 7805,
      "Alison": 7806,
      "Mattson": 7807,
      "Coca": 7808,
      "Ripken": 7809,
      "Shed": 7810,
      "Shrum": 7811,
      "Crosby": 7812,
      "Reks": 7813,
      "Healy": 7814,
      "Tomioka": 7815,
      "Beard": 7816,
      "Bugar": 7817,
      "Dula": 7818,
      "Benard": 7819,
      "Donta": 7820,
      "Doncon": 7821,
      "Johnathon": 7822,
      "Hendrickson": 7823,
      "Kobos": 7824,
      "Murzi": 7825,
      "Salgado": 7826,
      "Mayberry": 7827,
      "Curvelo": 7828,
      "Mengden": 7829,
      "Kubat": 7830,
      "Tago": 7831,
      "Villarroel": 7832,
      "Dominguez": 7833,
      "Kopps": 7834,
      "Brookman": 7835,
      "Rayne": 7836,
      "Norman": 7837,
      "Mellen": 7838,
      "Ryon": 7839,
      "6617": 7840,
      "6621": 7841,
      "Acuna": 7842,
      "Feinberg": 7843,
      "Hanson": 7844,
      "Cantleberry": 7845,
      "Valladares": 7846,
      "Cortland": 7847,
      "Cardona": 7848,
      "Hassell": 7849,
      "Kuzia": 7850,
      "Pucheu": 7851,
      "Routzahn": 7852,
      "Uziel": 7853,
      "Bugarin": 7854,
      "47": 7855,
      "95": 7856,
      "94": 7857,
      "Ex": 7858,
      "Ew": 7859,
      "Kahl": 7860,
      "Nie": 7861,
      "Ony": 7862,
      "Pauley": 7863,
      "Red": 7864,
      "Til": 7865,
      "Wom": 7866,
      "Wence": 7867,
      "##uey": 7868,
      "##sander": 7869,
      "##pos": 7870,
      "##utwe": 7871,
      "Stur": 7872,
      "##atore": 7873,
      "##illians": 7874,
      "Marino": 7875,
      "Jojan": 7876,
      "Alsander": 7877,
      "Tyres": 7878,
      "Carip": 7879,
      "Coffman": 7880,
      "Deion": 7881,
      "Destino": 7882,
      "##geon": 7883,
      "Rizer": 7884,
      "##shko": 7885,
      "Leban": 7886,
      "##ryver": 7887,
      "Schryver": 7888,
      "Quent": 7889,
      "Semmel": 7890,
      "Montana": 7891,
      "##mpert": 7892,
      "##farb": 7893,
      "Salvatore": 7894,
      "Telis": 7895,
      "McLarty": 7896,
      "Daneurys": 7897,
      "##ubise": 7898,
      "Foyle": 7899,
      "Yendry": 7900,
      "##donio": 7901,
      "Celedonio": 7902,
      "Shumpert": 7903,
      "Kinney": 7904,
      "Keithron": 7905,
      "Alduey": 7906,
      "Lebron": 7907,
      "Harding": 7908,
      "Goldfarb": 7909,
      "Betancourt": 7910,
      "Suggs": 7911,
      "Wuillians": 7912,
      "Hurtubise": 7913,
      "Chester": 7914,
      "Trautwe": 7915,
      "Expos": 7916,
      "Ewry": 7917,
      "Kahlil": 7918,
      "Nieves": 7919,
      "Onyshko": 7920,
      "Redmond": 7921,
      "Tilien": 7922,
      "Womack": 7923,
      "Wenceel": 7924,
      "Sturgeon": 7925,
      "Jojanse": 7926,
      "Tyresse": 7927,
      "Caripa": 7928,
      "Quentin": 7929,
      "Trautwein": 7930,
      "Exposito": 7931,
      "At": 7932,
      "Avin": 7933,
      "Bill": 7934,
      "Bid": 7935,
      "Bac": 7936,
      "Cac": 7937,
      "Cate": 7938,
      "GJ": 7939,
      "Gia": 7940,
      "Mra": 7941,
      "Un": 7942,
      "##endez": 7943,
      "##cone": 7944,
      "##ot": 7945,
      "##uly": 7946,
      "##hw": 7947,
      "##gria": 7948,
      "##witt": 7949,
      "##erino": 7950,
      "##arion": 7951,
      "Stie": 7952,
      "##asch": 7953,
      "##osenberg": 7954,
      "##ilfredo": 7955,
      "Mitzel": 7956,
      "##eshw": 7957,
      "Roton": 7958,
      "##urman": 7959,
      "Matias": 7960,
      "Alegria": 7961,
      "Seuly": 7962,
      "Mattis": 7963,
      "Linarez": 7964,
      "Rickett": 7965,
      "Maese": 7966,
      "##vins": 7967,
      "##abria": 7968,
      "Antunez": 7969,
      "Levins": 7970,
      "Harney": 7971,
      "Argen": 7972,
      "Hewitt": 7973,
      "Blas": 7974,
      "Cluff": 7975,
      "Ruot": 7976,
      "Johneshw": 7977,
      "Guasch": 7978,
      "##gelys": 7979,
      "Mota": 7980,
      "Sacco": 7981,
      "Menendez": 7982,
      "Sanabria": 7983,
      "Milkar": 7984,
      "Crisp": 7985,
      "7163": 7986,
      "Tatem": 7987,
      "Marinan": 7988,
      "Goosenberg": 7989,
      "Eliesel": 7990,
      "Aldrich": 7991,
      "Jorgelys": 7992,
      "Jefrey": 7993,
      "Fargas": 7994,
      "Canterino": 7995,
      "Novoa": 7996,
      "Dilmer": 7997,
      "Colmenares": 7998,
      "Wuilfredo": 7999,
      "Emaarion": 8000,
      "Atwood": 8001,
      "Avina": 8002,
      "Biddy": 8003,
      "Caceres": 8004,
      "Giacone": 8005,
      "Mraz": 8006,
      "Unroe": 8007,
      "Stiever": 8008,
      "Rotondo": 8009,
      "Ricketts": 8010,
      "Argenis": 8011,
      "Ruotolo": 8012,
      "Johneshwy": 8013,
      "46": 8014,
      "Bale": 8015,
      "Capp": 8016,
      "Furman": 8017,
      "Ply": 8018,
      "Paz": 8019,
      "Ske": 8020,
      "##rano": 8021,
      "##rington": 8022,
      "##vath": 8023,
      "##wkins": 8024,
      "##Wey": 8025,
      "##anche": 8026,
      "##lex": 8027,
      "##chart": 8028,
      "##iling": 8029,
      "##isinger": 8030,
      "Branche": 8031,
      "##ampton": 8032,
      "Josan": 8033,
      "Ching": 8034,
      "Joab": 8035,
      "Jongh": 8036,
      "Harrington": 8037,
      "Crampton": 8038,
      "Wild": 8039,
      "Bradshaw": 8040,
      "Meisinger": 8041,
      "Haylen": 8042,
      "Renae": 8043,
      "Donlan": 8044,
      "Hawkins": 8045,
      "Veliz": 8046,
      "Yoan": 8047,
      "Beltran": 8048,
      "Narbe": 8049,
      "Gauth": 8050,
      "Hollins": 8051,
      "VanWey": 8052,
      "Yohanse": 8053,
      "Horvath": 8054,
      "6627": 8055,
      "Mallex": 8056,
      "Cornielle": 8057,
      "Planchart": 8058,
      "Valentine": 8059,
      "Balego": 8060,
      "Plymell": 8061,
      "Skeiling": 8062,
      "Gauthier": 8063,
      "Amp": 8064,
      "Bisson": 8065,
      "Dez": 8066,
      "Iad": 8067,
      "Pip": 8068,
      "Sah": 8069,
      "Tass": 8070,
      "Ush": 8071,
      "Yidd": 8072,
      "Zw": 8073,
      "##eta": 8074,
      "##bes": 8075,
      "##bbert": 8076,
      "##baldo": 8077,
      "##lom": 8078,
      "##aquin": 8079,
      "##ohn": 8080,
      "##ubert": 8081,
      "##fi": 8082,
      "##fano": 8083,
      "##fmann": 8084,
      "##fred": 8085,
      "##ijo": 8086,
      "##ifi": 8087,
      "##gford": 8088,
      "##Val": 8089,
      "##alo": 8090,
      "##osky": 8091,
      "##isern": 8092,
      "##ingson": 8093,
      "##olati": 8094,
      "Chalo": 8095,
      "Joaquin": 8096,
      "##uni": 8097,
      "Jakey": 8098,
      "##bbel": 8099,
      "Spohn": 8100,
      "Hebbert": 8101,
      "Wilfred": 8102,
      "Forbes": 8103,
      "Hofmann": 8104,
      "Duque": 8105,
      "Langford": 8106,
      "##enzo": 8107,
      "Johnfrank": 8108,
      "Mode": 8109,
      "Leobaldo": 8110,
      "Ural": 8111,
      "Curial": 8112,
      "7176": 8113,
      "7186": 8114,
      "Yeuri": 8115,
      "Yeuni": 8116,
      "Norlando": 8117,
      "Ellingson": 8118,
      "7166": 8119,
      "Horrell": 8120,
      "Gobbel": 8121,
      "Decolati": 8122,
      "DiVal": 8123,
      "Piment": 8124,
      "Alifano": 8125,
      "Josepha": 8126,
      "Labosky": 8127,
      "Denny": 8128,
      "Layant": 8129,
      "Cortijo": 8130,
      "Kliubert": 8131,
      "Cappe": 8132,
      "Amparo": 8133,
      "Bissonette": 8134,
      "Dezenzo": 8135,
      "Iadisern": 8136,
      "Piper": 8137,
      "Sahid": 8138,
      "Tassin": 8139,
      "Usher": 8140,
      "Yiddi": 8141,
      "Zwack": 8142,
      "Modeifi": 8143,
      "Curialle": 8144,
      "DiValerio": 8145,
      "Pimentel": 8146,
      "Iadisernia": 8147,
      "45": 8148,
      "Bap": 8149,
      "Hir": 8150,
      "Kam": 8151,
      "Kell": 8152,
      "Pen": 8153,
      "##evas": 8154,
      "##llock": 8155,
      "##oria": 8156,
      "##tis": 8157,
      "##di": 8158,
      "##iuk": 8159,
      "##hue": 8160,
      "##glan": 8161,
      "##zw": 8162,
      "##vrin": 8163,
      "##jj": 8164,
      "##peda": 8165,
      "##utel": 8166,
      "##kett": 8167,
      "##omaki": 8168,
      "Robby": 8169,
      "Roque": 8170,
      "Jozw": 8171,
      "##iell": 8172,
      "##unkett": 8173,
      "Dees": 8174,
      "Deglan": 8175,
      "Bodi": 8176,
      "##abiell": 8177,
      "Raino": 8178,
      "Schaller": 8179,
      "Jeisel": 8180,
      "Coran": 8181,
      "Rossman": 8182,
      "Beutel": 8183,
      "Bubby": 8184,
      "Bullock": 8185,
      "##phal": 8186,
      "Samil": 8187,
      "Hajj": 8188,
      "Johnabiell": 8189,
      "Geisel": 8190,
      "Esch": 8191,
      "Givin": 8192,
      "##debrand": 8193,
      "Goldsberry": 8194,
      "Mayhue": 8195,
      "Masiuk": 8196,
      "Palomaki": 8197,
      "Yanki": 8198,
      "Ozoria": 8199,
      "Cuevas": 8200,
      "Cepeda": 8201,
      "Westphal": 8202,
      "Scherff": 8203,
      "71769": 8204,
      "71770": 8205,
      "71785": 8206,
      "71764": 8207,
      "71765": 8208,
      "71761": 8209,
      "71762": 8210,
      "71763": 8211,
      "71760": 8212,
      "Plunkett": 8213,
      "71869": 8214,
      "71870": 8215,
      "71864": 8216,
      "71865": 8217,
      "71861": 8218,
      "71862": 8219,
      "71863": 8220,
      "71860": 8221,
      "Yean": 8222,
      "71669": 8223,
      "71670": 8224,
      "71685": 8225,
      "71664": 8226,
      "71665": 8227,
      "71661": 8228,
      "71662": 8229,
      "71663": 8230,
      "71660": 8231,
      "71639": 8232,
      "Pierre": 8233,
      "Rascon": 8234,
      "66343": 8235,
      "66341": 8236,
      "66340": 8237,
      "66342": 8238,
      "6624": 8239,
      "Janvrin": 8240,
      "Rubio": 8241,
      "Krol": 8242,
      "Hildebrand": 8243,
      "Angeudis": 8244,
      "Peluse": 8245,
      "Baptis": 8246,
      "Hiraldo": 8247,
      "Kellin": 8248,
      "Penner": 8249,
      "Jozwiak": 8250,
      "Hajjar": 8251,
      "Baptiste": 8252,
      "49": 8253,
      "97": 8254,
      "Aid": 8255,
      "Ariel": 8256,
      "Gosse": 8257,
      "Ki": 8258,
      "Krie": 8259,
      "Katz": 8260,
      "Liz": 8261,
      "Mez": 8262,
      "Nak": 8263,
      "Randol": 8264,
      "Siro": 8265,
      "Ting": 8266,
      "Tost": 8267,
      "Wady": 8268,
      "Zub": 8269,
      "##caya": 8270,
      "##uger": 8271,
      "##dell": 8272,
      "##mpen": 8273,
      "##vle": 8274,
      "##mek": 8275,
      "##elstad": 8276,
      "##oski": 8277,
      "##ckoski": 8278,
      "##ilin": 8279,
      "##illett": 8280,
      "Brandol": 8281,
      "Chass": 8282,
      "Roger": 8283,
      "##ieson": 8284,
      "Kempen": 8285,
      "Seque": 8286,
      "Carlo": 8287,
      "##quita": 8288,
      "Frander": 8289,
      "Rios": 8290,
      "##aba": 8291,
      "Rackoski": 8292,
      "Leam": 8293,
      "Reinos": 8294,
      "Cornel": 8295,
      "Marciano": 8296,
      "Wepf": 8297,
      "Patel": 8298,
      "Barker": 8299,
      "##awake": 8300,
      "Kobe": 8301,
      "Camillett": 8302,
      "##ishi": 8303,
      "Darel": 8304,
      "Albertus": 8305,
      "Espinosa": 8306,
      "Taishi": 8307,
      "71768": 8308,
      "71767": 8309,
      "71868": 8310,
      "71867": 8311,
      "Medrano": 8312,
      "Glass": 8313,
      "Hagaman": 8314,
      "Karan": 8315,
      "Beckstein": 8316,
      "Kuhns": 8317,
      "71668": 8318,
      "71667": 8319,
      "71637": 8320,
      "Mathieson": 8321,
      "6634": 8322,
      "66345": 8323,
      "Smelley": 8324,
      "6618": 8325,
      "Padua": 8326,
      "Hatcher": 8327,
      "Jasiah": 8328,
      "Rolando": 8329,
      "Dowdell": 8330,
      "Vizcaya": 8331,
      "Kruger": 8332,
      "Dupere": 8333,
      "Emailin": 8334,
      "Klimek": 8335,
      "Aybar": 8336,
      "Baca": 8337,
      "Aidan": 8338,
      "Gossett": 8339,
      "Kivle": 8340,
      "Krieger": 8341,
      "Lizandro": 8342,
      "Mezquita": 8343,
      "Nakawake": 8344,
      "Randolph": 8345,
      "Sirota": 8346,
      "Tingelstad": 8347,
      "Tostado": 8348,
      "Zubia": 8349,
      "Chasse": 8350,
      "Sequeira": 8351,
      "Reinoso": 8352,
      "Cornelius": 8353,
      "Camilletti": 8354,
      "Kivlehan": 8355,
      "Bord": 8356,
      "Gie": 8357,
      "Hus": 8358,
      "Hint": 8359,
      "Jhan": 8360,
      "Otero": 8361,
      "Pacio": 8362,
      "Yamil": 8363,
      "##ew": 8364,
      "##nwell": 8365,
      "##caba": 8366,
      "##til": 8367,
      "##yj": 8368,
      "##sik": 8369,
      "##kel": 8370,
      "##zio": 8371,
      "##jte": 8372,
      "##anski": 8373,
      "##rek": 8374,
      "##alier": 8375,
      "##alcaba": 8376,
      "##enan": 8377,
      "##enry": 8378,
      "##ckyj": 8379,
      "Bratt": 8380,
      "##lyn": 8381,
      "Chev": 8382,
      "Keenan": 8383,
      "Alonzo": 8384,
      "Carmon": 8385,
      "Dougl": 8386,
      "Willrod": 8387,
      "##gulo": 8388,
      "##merlyn": 8389,
      "Ship": 8390,
      "Regi": 8391,
      "Cornwell": 8392,
      "Lott": 8393,
      "Loew": 8394,
      "Weig": 8395,
      "Barry": 8396,
      "Sotil": 8397,
      "Ronis": 8398,
      "Geber": 8399,
      "Esmerlyn": 8400,
      "##cum": 8401,
      "Vojte": 8402,
      "Druw": 8403,
      "Mensik": 8404,
      "Cuev": 8405,
      "Tyranski": 8406,
      "Yef": 8407,
      "71638": 8408,
      "71635": 8409,
      "McHenry": 8410,
      "66187": 8411,
      "66289": 8412,
      "Rutckyj": 8413,
      "Petersen": 8414,
      "Charle": 8415,
      "Dayne": 8416,
      "Quinlivan": 8417,
      "Angulo": 8418,
      "Rubalcaba": 8419,
      "Orazio": 8420,
      "Labrada": 8421,
      "Northcraft": 8422,
      "Crossen": 8423,
      "Barreda": 8424,
      "Macko": 8425,
      "Cable": 8426,
      "Pastran": 8427,
      "Beyker": 8428,
      "Mullenbach": 8429,
      "Borden": 8430,
      "Gieg": 8431,
      "Hussey": 8432,
      "Hintzen": 8433,
      "Paciorek": 8434,
      "Chevalier": 8435,
      "Carmona": 8436,
      "Douglas": 8437,
      "Willrodt": 8438,
      "Shipley": 8439,
      "Loewen": 8440,
      "Weigel": 8441,
      "Sotillet": 8442,
      "Vojtech": 8443,
      "Cueva": 8444,
      "96": 8445,
      "Bone": 8446,
      "Bien": 8447,
      "Cour": 8448,
      "Fill": 8449,
      "Gav": 8450,
      "Kerner": 8451,
      "Komar": 8452,
      "Nolas": 8453,
      "Oña": 8454,
      "Pollard": 8455,
      "Rash": 8456,
      "Va": 8457,
      "Wahl": 8458,
      "##ete": 8459,
      "##aco": 8460,
      "##cio": 8461,
      "##cris": 8462,
      "##odor": 8463,
      "##oker": 8464,
      "##kai": 8465,
      "##mble": 8466,
      "##zill": 8467,
      "##xak": 8468,
      "##vier": 8469,
      "##illey": 8470,
      "##esey": 8471,
      "Roy": 8472,
      "Lucum": 8473,
      "##bers": 8474,
      "##impf": 8475,
      "Keoni": 8476,
      "Kekai": 8477,
      "Albers": 8478,
      "##ung": 8479,
      "##quero": 8480,
      "Alexfri": 8481,
      "Booker": 8482,
      "##myer": 8483,
      "Shap": 8484,
      "Leal": 8485,
      "Sparling": 8486,
      "##ahel": 8487,
      "Schimpf": 8488,
      "Hever": 8489,
      "##insky": 8490,
      "Bueno": 8491,
      "##reyes": 8492,
      "Merrell": 8493,
      "Barete": 8494,
      "Torreyes": 8495,
      "Lanzill": 8496,
      "Clarn": 8497,
      "Claun": 8498,
      "Haake": 8499,
      "Guinn": 8500,
      "Tevin": 8501,
      "Teodor": 8502,
      "Doxak": 8503,
      "##peano": 8504,
      "Cavaco": 8505,
      "Florez": 8506,
      "Melean": 8507,
      "Seraf": 8508,
      "Solarte": 8509,
      "Trimble": 8510,
      "Olivier": 8511,
      "Olivarez": 8512,
      "Helcris": 8513,
      "Velez": 8514,
      "Livesey": 8515,
      "##born": 8516,
      "Swilley": 8517,
      "66170": 8518,
      "66262": 8519,
      "66239": 8520,
      "Tsung": 8521,
      "Pagan": 8522,
      "Howlett": 8523,
      "Jamal": 8524,
      "Malvin": 8525,
      "Jarlin": 8526,
      "Schulze": 8527,
      "Daily": 8528,
      "Tropeano": 8529,
      "##iglio": 8530,
[...]
